{
  "</s>": 0,
  "<unk>": 1,
  ".": 2,
  ",": 3,
  "\u2581the": 4,
  "\u2581de": 5,
  "?": 6,
  "'": 7,
  "\u2581a": 8,
  "-": 9,
  "\u2581-": 10,
  "s": 11,
  "\u2581I": 12,
  "\u2581to": 13,
  "\u2581of": 14,
  "\u2581": 15,
  "\u2581you": 16,
  "\u2581\u00een": 17,
  "\u2581and": 18,
  "\u2581s\u0103": 19,
  "\u2581in": 20,
  "a": 21,
  "i": 22,
  "!": 23,
  "\u2581la": 24,
  "t": 25,
  "...": 26,
  "\u2581o": 27,
  "\u2581cu": 28,
  "\u2581nu": 29,
  "\u2581that": 30,
  "\u2581\u015fi": 31,
  "\u2581is": 32,
  "\u2581it": 33,
  "m": 34,
  "e": 35,
  "\u2581c\u0103": 36,
  "\u2581for": 37,
  "\u2581pe": 38,
  "\u2581pentru": 39,
  "\u2581(": 40,
  "\u2581Nu": 41,
  "\u2581un": 42,
  "\u2581care": 43,
  "\u2581din": 44,
  "\u2581on": 45,
  "\u2581\u0219i": 46,
  "\u2581be": 47,
  "\u2581\"": 48,
  "\u0163i": 49,
  "\u2581mai": 50,
  "\u2581with": 51,
  "\u2581ce": 52,
  ":": 53,
  "\u2581You": 54,
  "\u2581este": 55,
  ")": 56,
  "\u2581are": 57,
  "\u2581e": 58,
  "\u2581se": 59,
  "re": 60,
  "\u2581me": 61,
  "ul": 62,
  "\u2581this": 63,
  "\u2581have": 64,
  "\u2581was": 65,
  "\u2581not": 66,
  "\u2581A": 67,
  "\u2581The": 68,
  "o": 69,
  "\u2581ca": 70,
  "\u0103": 71,
  "le": 72,
  "\u2581fi": 73,
  "\u2581we": 74,
  "ing": 75,
  "\u2581am": 76,
  "\u2581your": 77,
  "n": 78,
  "\u2581fost": 79,
  "\u2581sunt": 80,
  "y": 81,
  "\u2581as": 82,
  "am": 83,
  "\u2581It": 84,
  "\u2581my": 85,
  "\u2581or": 86,
  "\u2581can": 87,
  "\u2581do": 88,
  "\u2581know": 89,
  "\u2581asta": 90,
  "\u2581E": 91,
  "\u2581he": 92,
  "\u2581sa": 93,
  "\u2581s": 94,
  "\u2581by": 95,
  "\u2581What": 96,
  "\u2581te": 97,
  "\u2581sau": 98,
  "d": 99,
  "\u2581go": 100,
  "\u2581at": 101,
  "\u2581all": 102,
  "\u2581No": 103,
  "\u2581Ce": 104,
  "l": 105,
  "\u2581what": 106,
  ";": 107,
  "\u2581from": 108,
  "\u2581De": 109,
  "h": 110,
  "\u2581Da": 111,
  "ll": 112,
  "\u2581don": 113,
  "\u2581out": 114,
  "\u2581We": 115,
  "\u2581an": 116,
  "\u2581ai": 117,
  "\u2581va": 118,
  "\u2581Am": 119,
  "\u2581And": 120,
  "\u2581S": 121,
  "\u2581al": 122,
  "\u2581will": 123,
  "\u2581au": 124,
  "\u2581He": 125,
  "\u2581up": 126,
  "\u2581\u00cen": 127,
  "\u2581just": 128,
  "\u2581like": 129,
  "ly": 130,
  "\u2581about": 131,
  "\u2581here": 132,
  "ed": 133,
  "\u2581bine": 134,
  "\u2581O": 135,
  "\u2581ne": 136,
  "\u2581si": 137,
  "\u2581ar": 138,
  "\u2581get": 139,
  "\u2581Oh": 140,
  "\u2581one": 141,
  "\u2581him": 142,
  "\u2581they": 143,
  "\u2581aici": 144,
  "te": 145,
  "\u2581lui": 146,
  "\u2581there": 147,
  "\u2581right": 148,
  "\u2581did": 149,
  "\u2581but": 150,
  "ve": 151,
  "\u2581so": 152,
  "\u2581trebuie": 153,
  "\u2581no": 154,
  "\u2581i": 155,
  "\u2581her": 156,
  "/": 157,
  "\"": 158,
  "\u2581!": 159,
  "\u2581L": 160,
  "ului": 161,
  "\u2581C": 162,
  "\u2581dar": 163,
  "\u2581m\u0103": 164,
  "\u2581got": 165,
  "\u2581p": 166,
  "\u2581That": 167,
  "\u2581if": 168,
  "mi": 169,
  "\u2581face": 170,
  "\u2581his": 171,
  "\u2581In": 172,
  ".\"": 173,
  "\u2581has": 174,
  "\u2581\u015ei": 175,
  "ar": 176,
  "\u2581B": 177,
  "\u2581dac\u0103": 178,
  "\u2581want": 179,
  "u": 180,
  "lor": 181,
  "\u2581would": 182,
  "\u2581been": 183,
  "\u2581Dar": 184,
  "b": 185,
  "\u2581were": 186,
  "\u2581This": 187,
  "\u2581time": 188,
  "\u2581pot": 189,
  "\u2581eu": 190,
  "ai": 191,
  "\u2581think": 192,
  "\u2581which": 193,
  "\u2581cum": 194,
  "\u2581But": 195,
  "\u2581should": 196,
  "\u2581Yea": 197,
  "\u2581them": 198,
  "at": 199,
  "er": 200,
  "\u2581So": 201,
  "\u2581who": 202,
  "\u2581us": 203,
  "\u2581mine": 204,
  "\u2581D": 205,
  "nna": 206,
  "\u2581P": 207,
  "\u2581poate": 208,
  "\u2581c\u00e2nd": 209,
  "\u0163ie": 210,
  "\u2581she": 211,
  "\u2581now": 212,
  "\u2581el": 213,
  "\u2581ceva": 214,
  "\u2581shall": 215,
  "\u2581see": 216,
  "\u2581more": 217,
  "c": 218,
  "\u2581mult": 219,
  "\u2581Well": 220,
  "\u0163ii": 221,
  "\u2581doar": 222,
  "\u2581m": 223,
  "\u2581fie": 224,
  "\u2581had": 225,
  "\u2581prin": 226,
  "\u2581le": 227,
  "\u2581Do": 228,
  "\u2581tine": 229,
  "\u2581ale": 230,
  "ti": 231,
  "\u25811": 232,
  "\u2581n": 233,
  "\u2581European": 234,
  "\u2581T": 235,
  "\u2581back": 236,
  "in": 237,
  "\u2581our": 238,
  "\u2581their": 239,
  "\u2581when": 240,
  "\u2581La": 241,
  "\u2581could": 242,
  "va": 243,
  "\u2581other": 244,
  "\u2581acum": 245,
  "\u2581need": 246,
  "\u2581Ai": 247,
  "\u2581going": 248,
  "\u2581some": 249,
  "\u2581spus": 250,
  "\u2581l": 251,
  "\u2581acest": 252,
  "\u021bi": 253,
  "\u2581M": 254,
  "\u2581despre": 255,
  "au": 256,
  "\u2581real": 257,
  "al": 258,
  "\u2581mea": 259,
  "\u2581trebui": 260,
  "\u2581a\u015fa": 261,
  "\u2581tu": 262,
  "\u2581Bine": 263,
  "\u2581N": 264,
  "\u2581good": 265,
  "\u0163ia": 266,
  "\u2581mi": 267,
  "\u2581ta": 268,
  "\u2581Te": 269,
  "\u2581voi": 270,
  "\u2581take": 271,
  "\u2581ei": 272,
  "\u2581putea": 273,
  "S": 274,
  "\u2581any": 275,
  "\u2581Sunt": 276,
  "\u2581v\u0103": 277,
  "\u2581They": 278,
  "or": 279,
  "\u2581She": 280,
  "\u2581Article": 281,
  "\u2581noi": 282,
  "\u2581toate": 283,
  "\u2581down": 284,
  "\u2581Dac\u0103": 285,
  "\u2581meu": 286,
  "\u2581If": 287,
  "\u2581man": 288,
  "\u2581f\u0103cut": 289,
  "A": 290,
  "\u2581privind": 291,
  "\u2581[": 292,
  "\u2581into": 293,
  "g": 294,
  "\u2581How": 295,
  "un": 296,
  "\u2581only": 297,
  "\u2581foarte": 298,
  "\u2581tot": 299,
  "\u2581timp": 300,
  "\u2581way": 301,
  "ta": 302,
  "\u2581come": 303,
  "\u2581how": 304,
  "\u25812": 305,
  "\u2581make": 306,
  "\u2581Se": 307,
  "\u2581F": 308,
  "\u2581place": 309,
  "\u2581than": 310,
  "\u2581over": 311,
  "\u2581dup\u0103": 312,
  "\u2581...": 313,
  "\u2581people": 314,
  "\u2581Yes": 315,
  "\u2581say": 316,
  "I": 317,
  "\u2581where": 318,
  "\u2581\u00eentr": 319,
  "\u2581'": 320,
  "r": 321,
  "\u2581may": 322,
  "de": 323,
  "ie": 324,
  "\u2581ea": 325,
  "\u2581Hey": 326,
  "\u2581pare": 327,
  "]": 328,
  ").": 329,
  "\u2581Este": 330,
  "\u2581does": 331,
  "\u258110": 332,
  "\u2581There": 333,
  "\u2581re": 334,
  "\u2581g": 335,
  "\u2581tell": 336,
  "\u2581mare": 337,
  "\u0163\u0103": 338,
  "\u2581Asta": 339,
  "),": 340,
  "\u2581Pentru": 341,
  "\u25813": 342,
  "\u2581ani": 343,
  "\u2581vor": 344,
  "C": 345,
  "\u2581Commission": 346,
  "uri": 347,
  "\u2581S\u0103": 348,
  "\u2581said": 349,
  "\u2581its": 350,
  "\u2581acolo": 351,
  "\u2581d": 352,
  "\u2581Eu": 353,
  "\u2581these": 354,
  "\u2581Trebuie": 355,
  "very": 356,
  "\u2581cel": 357,
  "\u2581something": 358,
  "\u2581fac": 359,
  "\u2581Why": 360,
  "\u2581God": 361,
  "\u2581two": 362,
  "\u2581All": 363,
  "\u2581then": 364,
  "\u2581Oka": 365,
  "\u2581ceea": 366,
  "\u2581Regulation": 367,
  "\u2581faci": 368,
  "\u2581nevoie": 369,
  "\u2581unde": 370,
  "\u2581dintre": 371,
  "\u2581Mr": 372,
  "\u2581too": 373,
  "\u2581Come": 374,
  "ii": 375,
  "\u2581era": 376,
  "\u2581Cum": 377,
  "\u2581unui": 378,
  "\u2581G": 379,
  "\u2581e\u015fti": 380,
  "\u2581also": 381,
  "\u2581first": 382,
  "\u2581lucru": 383,
  "\u2581must": 384,
  "\u266a": 385,
  "\u2581spune": 386,
  "\u2581da": 387,
  "\u2581H": 388,
  "\u2581those": 389,
  "\u2581Un": 390,
  "es": 391,
  "\u2581Don": 392,
  "\u2581Member": 393,
  "\u2581p\u00e2n\u0103": 394,
  "\u2581mean": 395,
  "\u015fi": 396,
  "\u2581new": 397,
  "\u2581Cu": 398,
  "umesc": 399,
  "\u2581chiar": 400,
  "\u2581never": 401,
  "\u2581R": 402,
  "\u2581little": 403,
  "\u2581f": 404,
  "\u2581lor": 405,
  "\u2581ma": 406,
  "\u2581avea": 407,
  "\u2581work": 408,
  "\u2581well": 409,
  "\u2581off": 410,
  "\u2581unei": 411,
  "\u2581El": 412,
  "\u2581r\u0103u": 413,
  "se": 414,
  "m\u0103": 415,
  "\u2581Thank": 416,
  "\u2581W": 417,
  "\u2581let": 418,
  "\u2581Let": 419,
  "\u2581\u00cem": 420,
  "\u2581nimic": 421,
  "\u25815": 422,
  "\u2581nici": 423,
  "\u2581spun": 424,
  "rea": 425,
  "\u2581Mi": 426,
  "\u2581cred": 427,
  "\u2581M\u0103": 428,
  "\u2581My": 429,
  "on": 430,
  "\u2581day": 431,
  "\u25814": 432,
  "\u2581before": 433,
  "\u2581look": 434,
  "are": 435,
  "\u2581\u015ftiu": 436,
  "\u2581after": 437,
  "\u2581life": 438,
  "\u2581years": 439,
  "\u2581Are": 440,
  "\u2581at\u00e2t": 441,
  "\u2581even": 442,
  "\u2581Ei": 443,
  "\u2581use": 444,
  "\u2581much": 445,
  "\u2581dec\u00e2t": 446,
  "\u2581t\u0103u": 447,
  "\u2581Tu": 448,
  "\u2581because": 449,
  "\u2581aceast\u0103": 450,
  "\u2581help": 451,
  "ne": 452,
  "\u2581V": 453,
  "esc": 454,
  "\u2581multe": 455,
  "\u2581such": 456,
  "\u2581Ne": 457,
  "\u2581doing": 458,
  "\u2581cazul": 459,
  "\u2581For": 460,
  "\u2581love": 461,
  "\u2581made": 462,
  "ri": 463,
  "\u2581To": 464,
  "\u2581thing": 465,
  "\u2581Ar": 466,
  "k": 467,
  "\u2581find": 468,
  "\u2581Now": 469,
  "\u2581avut": 470,
  "\u2581K": 471,
  "\u2581data": 472,
  "\u2581cele": 473,
  "\u2581special": 474,
  "ic": 475,
  "\u2581States": 476,
  "\u2581sub": 477,
  "\u2581under": 478,
  "\u2581rog": 479,
  "\u2581atunci": 480,
  "\u2581iar": 481,
  "\u2581why": 482,
  "kay": 483,
  ",\"": 484,
  "\u2581fel": 485,
  "\u2581Where": 486,
  "\u2581vrei": 487,
  "\u2581nr": 488,
  "uck": 489,
  "\u2581give": 490,
  "\u2581prea": 491,
  "B": 492,
  "\u2581f\u0103r\u0103": 493,
  "\u0163a": 494,
  "\u2581still": 495,
  "\u2581loc": 496,
  "f": 497,
  "\u2581EU": 498,
  "\u2581Pe": 499,
  "ate": 500,
  "\u2581J": 501,
  "\u2581membre": 502,
  "\u2581through": 503,
  "\u2581Acum": 504,
  "ele": 505,
  "man": 506,
  "\u2581Look": 507,
  "\u2581mod": 508,
  "\u2581c\u0103tre": 509,
  "\u2581used": 510,
  "\u2581c\u00e2t": 511,
  "\u2581Si": 512,
  "\u2581pre": 513,
  "\u2581vreau": 514,
  "\u2581Who": 515,
  "be": 516,
  "\u2581Just": 517,
  "D": 518,
  "\u2581asemenea": 519,
  "\u2581parte": 520,
  "\u2581Cred": 521,
  "\u2581try": 522,
  "\u2581Union": 523,
  "t\u0103": 524,
  "CE": 525,
  "\u2581Deci": 526,
  "eaz\u0103": 527,
  "\u2581Ca": 528,
  "th": 529,
  "\u2581information": 530,
  "an": 531,
  "z": 532,
  "\u2581fiecare": 533,
  "\u25816": 534,
  "\u2581last": 535,
  "\u2581night": 536,
  "\u2581May": 537,
  "\u2581c": 538,
  "p": 539,
  "\u2581home": 540,
  "\u2581sure": 541,
  "\u2581long": 542,
  "E": 543,
  "\u258120": 544,
  "\u2581put": 545,
  "\u2581important": 546,
  "ez": 547,
  "\u2581v\u0103zut": 548,
  "to": 549,
  "\u2581Mai": 550,
  "\u2581sorry": 551,
  "\u2581alte": 552,
  "EC": 553,
  "\u2581being": 554,
  "\u2581vom": 555,
  "\u2581astfel": 556,
  "\u2581dou\u0103": 557,
  "\u2581zi": 558,
  "\u2581nou": 559,
  "\u2581Go": 560,
  "\u2581again": 561,
  "\u2581men": 562,
  "\u2581\u00eenainte": 563,
  "\u2581venit": 564,
  "\u2581E\u015ft": 565,
  "=": 566,
  "ma": 567,
  "\u2581\u015f": 568,
  "\u2581articolul": 569,
  "\u2581orice": 570,
  "\u2581\u00eentre": 571,
  "\u2581anything": 572,
  "\u2581bun": 573,
  "\u2581between": 574,
  "\u2581\u00eel": 575,
  "\u2581aceste": 576,
  "\u2581Council": 577,
  "os": 578,
  "\u2581Poate": 579,
  "\u2581cineva": 580,
  "ce": 581,
  "\u2581vei": 582,
  "\u2581\u00eei": 583,
  "\u2581away": 584,
  "na": 585,
  "\u2581name": 586,
  "\u2581talk": 587,
  "\u2581Re": 588,
  "\u2581Not": 589,
  "\u2581call": 590,
  "son": 591,
  "\u2581\u00eenc\u0103": 592,
  "\u2581things": 593,
  "\u00eemi": 594,
  "\u2581As": 595,
  "\u2581better": 596,
  "it": 597,
  "\u2581Unde": 598,
  "\u2581thought": 599,
  "\u2581same": 600,
  "\u2581Your": 601,
  "\u2581Dumnezeu": 602,
  "\u2581vrea": 603,
  "\u2581timpul": 604,
  "us": 605,
  "\u2581.": 606,
  "\u2581Hei": 607,
  "\u2581Good": 608,
  "\u2581dat": 609,
  "\u2581When": 610,
  "\u2581Bun\u0103": 611,
  "\u2581alineatul": 612,
  "\u2581most": 613,
  "\u2581world": 614,
  "\u2581told": 615,
  "\u2581peste": 616,
  "\u2581around": 617,
  "\u2581con": 618,
  "\u2581case": 619,
  "\u2581set": 620,
  "\u00e3": 621,
  "\u2581pu\u0163in": 622,
  "\u2581own": 623,
  "\u2581bun\u0103": 624,
  "\u2581cea": 625,
  "\u2581avem": 626,
  "en": 627,
  "T": 628,
  "\u2581Can": 629,
  "\u2581spui": 630,
  "\u2581UE": 631,
  "\u2581unul": 632,
  "\u2581Regulamentul": 633,
  "\u2581mg": 634,
  "\u2581\u00ee": 635,
  "a\u0163i": 636,
  "nd": 637,
  "\u2581c\u00e2te": 638,
  "\u2581Get": 639,
  "\u2581A\u015fa": 640,
  "ca": 641,
  "\u2581conformitate": 642,
  "\u2581Ma": 643,
  "\u258130": 644,
  "\u258112": 645,
  "\u2581great": 646,
  "\u2581feel": 647,
  "\u2581po\u0163i": 648,
  "\u2581oameni": 649,
  "--": 650,
  "\u258115": 651,
  "\u2581won": 652,
  "\u2581tip": 653,
  "\u2581car": 654,
  "tor": 655,
  "\u2581cei": 656,
  "H": 657,
  "P": 658,
  "\u25817": 659,
  "\u2581three": 660,
  "\u2581asupra": 661,
  "\u2581cine": 662,
  "\u2581luat": 663,
  "\u2581Cine": 664,
  "\u2581always": 665,
  "\u2581\u0163i": 666,
  "la": 667,
  "\u2581many": 668,
  "\u2581kind": 669,
  "Haide": 670,
  "\u0163iile": 671,
  "\u2581ori": 672,
  "\u2581precum": 673,
  "M": 674,
  "\u2581Mul\u0163": 675,
  "\u2581cadrul": 676,
  "\u2581vedere": 677,
  "\u2581control": 678,
  "\u2581Al": 679,
  "\u2581Did": 680,
  "\u25818": 681,
  "\u2581found": 682,
  "\u2581putem": 683,
  "2": 684,
  "\u2581each": 685,
  "\u2581without": 686,
  "\u2581part": 687,
  "\u2581C\u00e2nd": 688,
  "\u2581ever": 689,
  "\u2581g\u00e2nd": 690,
  "\u2581Vre": 691,
  "\u2581year": 692,
  "\u2581following": 693,
  "\u2581Comisia": 694,
  "e\u015fte": 695,
  "\u2581public": 696,
  "\u2581money": 697,
  "\u2581Vreau": 698,
  "\u2581lot": 699,
  "\u2581trei": 700,
  "\u2581aceasta": 701,
  "ers": 702,
  "da": 703,
  "guy": 704,
  "uh": 705,
  "\u2581jos": 706,
  "\u2581believe": 707,
  "\u2581every": 708,
  "\u2581please": 709,
  "\u2581sir": 710,
  "\u0103m": 711,
  "\u2581order": 712,
  "\u2581keep": 713,
  "\u2581regul\u0103": 714,
  "\u2581might": 715,
  "\u2581another": 716,
  "ch": 717,
  "\u2581date": 718,
  "N": 719,
  "\u0163iei": 720,
  "\u2581(1)": 721,
  "\u2581sus": 722,
  "\u2581done": 723,
  "v\u0103": 724,
  "\u2581Le": 725,
  "\u2581Uh": 726,
  "zi": 727,
  "\u2581partea": 728,
  "\u2581State": 729,
  "\u2581Comisiei": 730,
  "\u2581Articolul": 731,
  "ia": 732,
  "R": 733,
  "\u2581nothing": 734,
  "urile": 735,
  "rii": 736,
  "\u2581privire": 737,
  "\u0103sta": 738,
  "ei": 739,
  "\u2581U": 740,
  "\u2581everything": 741,
  "\u2581\u015ftii": 742,
  "\u2581v": 743,
  "\u2581dat\u0103": 744,
  "\u2581number": 745,
  "\u2581Po": 746,
  "\u2581exist\u0103": 747,
  "\u2581totul": 748,
  "\u2581old": 749,
  "\u2581moment": 750,
  "\u2581sigur": 751,
  "\u2581course": 752,
  "O": 753,
  "\u2581suntem": 754,
  "\u2581unor": 755,
  "\u2581point": 756,
  "\u00e2nd": 757,
  "\u2581minute": 758,
  "\u2581joc": 759,
  "ra": 760,
  "\u258118": 761,
  "\u2581ia": 762,
  "\u2581Sa": 763,
  "\u2581acestea": 764,
  "si": 765,
  "\u2581girl": 766,
  "il": 767,
  "\u2581Then": 768,
  "\u2581house": 769,
  "\u2581game": 770,
  "\u2581Directive": 771,
  "is": 772,
  "\u2581best": 773,
  "\u2581left": 774,
  "\u2581numai": 775,
  "\u2581Or": 776,
  "uys": 777,
  "llo": 778,
  "\u2581niciodat\u0103": 779,
  "\u2581aplicare": 780,
  "\u2581came": 781,
  "\u2581system": 782,
  "F": 783,
  "\u2581general": 784,
  "\u2581Ave": 785,
  "\u2581Consiliului": 786,
  "aiba": 787,
  "\u2581Uniunii": 788,
  "\u25819": 789,
  "\u2581both": 790,
  "\u2581products": 791,
  "\u2581THE": 792,
  "\u2581leave": 793,
  "\u2581lumea": 794,
  "\u2581\u00ce": 795,
  "L": 796,
  "\u2581market": 797,
  "\u2581means": 798,
  "\u2581sale": 799,
  "\u2581om": 800,
  "\u2581\u00eent\u00e2mplat": 801,
  "v": 802,
  "area": 803,
  "Please": 804,
  "ton": 805,
  "\u2581Dr": 806,
  "\u2581\u015etii": 807,
  "\u2581within": 808,
  "\u2581co": 809,
  "ezi": 810,
  "\u2581zile": 811,
  "\u2581Chiar": 812,
  "\u2581wanted": 813,
  "\u2581b": 814,
  "\u2581Sunte": 815,
  "\u2581Voi": 816,
  "\u2581v\u0103d": 817,
  "\u2581asa": 818,
  "\u2581Atunci": 819,
  "eze": 820,
  "\u2581stat": 821,
  "\u2581stop": 822,
  "\u2581facem": 823,
  "\u2581wrong": 824,
  "\u2581measures": 825,
  "\u2581end": 826,
  "\u2581days": 827,
  "\u2581together": 828,
  "G": 829,
  "\u2581t": 830,
  "\u2581Du": 831,
  "\u2581family": 832,
  "\u2581caz": 833,
  "\u2581doi": 834,
  "\u2581happened": 835,
  "\u2581coming": 836,
  "ny": 837,
  "\u2581plan": 838,
  "\u2581\u0218i": 839,
  "up": 840,
  "as": 841,
  "\u2581games": 842,
  "\u2581\u015etiu": 843,
  "\u2581already": 844,
  "\u2581nostru": 845,
  "\u2581John": 846,
  "\u2581understand": 847,
  "\u2581merge": 848,
  "\u2581room": 849,
  "\u2581auzit": 850,
  "one": 851,
  "\u2581crezi": 852,
  "\u2581Here": 853,
  "\u2581acas\u0103": 854,
  "\u2581hear": 855,
  "e\u015fti": 856,
  "\u2581g\u0103sit": 857,
  "\u2581Va": 858,
  "\u2581doctor": 859,
  "the": 860,
  "\u2581fapt": 861,
  "\u2581New": 862,
  "\u2581Co": 863,
  "\u0102": 864,
  "\u2581against": 865,
  "ata": 866,
  "\u2581area": 867,
  "\u2581big": 868,
  "st": 869,
  "\u2581father": 870,
  "stea": 871,
  "\u2581mergem": 872,
  "\u2581enough": 873,
  "\u2581fine": 874,
  "\u2581bad": 875,
  "tie": 876,
  "\u2581Ba": 877,
  "\u2581dead": 878,
  "\u2581today": 879,
  "\u2581apoi": 880,
  "\u2581ob": 881,
  "\u2581deja": 882,
  "\u2581toat\u0103": 883,
  "\u2581accordance": 884,
  "une": 885,
  "\u2581simt": 886,
  "\u2581numele": 887,
  "\u2581kill": 888,
  "\u2581V\u0103": 889,
  "\u2581Ea": 890,
  "ut": 891,
  "\u2581while": 892,
  "\u2581\u00eenseamn\u0103": 893,
  "\u2581vi": 894,
  "\u2581(2)": 895,
  "um": 896,
  "ion": 897,
  "ine": 898,
  "\u2581dv": 899,
  "\u2581someone": 900,
  "\u2581ci": 901,
  "\u2581Din": 902,
  "\u2581vedea": 903,
  "\u2581show": 904,
  "\u2581Acest": 905,
  "\u25811.": 906,
  "\u2581One": 907,
  "\u2581Uite": 908,
  "\u2581else": 909,
  "\u2581called": 910,
  "\u258111": 911,
  "\u2581talking": 912,
  "\u2581/": 913,
  "\u2581vrut": 914,
  "\u2581son": 915,
  "\u2581una": 916,
  "\u2581blood": 917,
  "\u2581next": 918,
  "10": 919,
  "\u2581Au": 920,
  "\u2581Annex": 921,
  "\u2581different": 922,
  "\u2581*": 923,
  "\u2581noastr\u0103": 924,
  "\u2581ask": 925,
  "me": 926,
  "\u2581bit": 927,
  "\u2581Era": 928,
  "\u2581mama": 929,
  "\u2581particular": 930,
  "EU": 931,
  "\u2581mother": 932,
  "\u2581national": 933,
  "cu": 934,
  "\u2581\u00eenapoi": 935,
  "\u2581jocuri": 936,
  "\u2581fii": 937,
  "\u2581prima": 938,
  "\u2581Stai": 939,
  "em": 940,
  "\u2581looking": 941,
  "\u2581went": 942,
  "\u2581patients": 943,
  "\u258125": 944,
  "\u2581copii": 945,
  "\u2581On": 946,
  "\u2581statele": 947,
  "ro": 948,
  "\u2581pacien": 949,
  "\u2581trecut": 950,
  "x": 951,
  "\u2581high": 952,
  "\u2581locul": 953,
  "\u2581water": 954,
  "\u2581level": 955,
  "\u2581body": 956,
  "\u2581hell": 957,
  "\u2581per": 958,
  "\u2581Tot": 959,
  "\u2581to\u0163i": 960,
  "\u2581whole": 961,
  "\u2581during": 962,
  "ina": 963,
  "\u2581free": 964,
  "\u2581Hai": 965,
  "\u2581job": 966,
  "ci": 967,
  "\u2581business": 968,
  "\u2581getting": 969,
  "\u2581mari": 970,
  "\u2581oamenii": 971,
  "\u2581fiu": 972,
  "\u2581mele": 973,
  "\u2581Hi": 974,
  "\u2581Spune": 975,
  "\u2581mind": 976,
  "\u2581spre": 977,
  "\u2581country": 978,
  "tty": 979,
  "\u2581start": 980,
  "\u2581membru": 981,
  "\u2581Prin": 982,
  "\u2581open": 983,
  "\u2581until": 984,
  "\u2581second": 985,
  "\u2581friend": 986,
  "\u2581Europene": 987,
  "c\u0103": 988,
  "\u2581children": 989,
  "\u2581art": 990,
  "\u2581including": 991,
  "\u2581Doamne": 992,
  "uni": 993,
  "\u2581took": 994,
  "\u2581hand": 995,
  "\u2581personal": 996,
  "este": 997,
  "\u2581saw": 998,
  "\u2581Care": 999,
  "\u2581state": 1000,
  "\u2581isn": 1001,
  "\u2581seen": 1002,
  "\u2581fac\u0103": 1003,
  "\u2581Because": 1004,
  "\u2581least": 1005,
  "\u2581ziua": 1006,
  "\u2581munc\u0103": 1007,
  "\u2581An": 1008,
  "\u2581\u00eempreun\u0103": 1009,
  "\u2581faptul": 1010,
  "do": 1011,
  "ist": 1012,
  "\u2581wait": 1013,
  "\u2581hard": 1014,
  "\u2581II": 1015,
  "\u2581boy": 1016,
  "\u2581person": 1017,
  "\u2581domnule": 1018,
  "\u2581luni": 1019,
  "\u2581stay": 1020,
  "\u2581hotel": 1021,
  "ni\u015fte": 1022,
  "\u2581adev\u0103rat": 1023,
  "\u2581Some": 1024,
  "ley": 1025,
  "\u2581play": 1026,
  "\u2581\u00eenceput": 1027,
  "3": 1028,
  "\u2581yourself": 1029,
  "UE": 1030,
  "\u2581nivel": 1031,
  "\u2581head": 1032,
  "\u0163ine": 1033,
  "\u2581destul": 1034,
  "\u2581financial": 1035,
  "\u2581change": 1036,
  "\u2581s\u0103u": 1037,
  "\u2581live": 1038,
  "\u2581&": 1039,
  "\u2581di": 1040,
  "ian": 1041,
  "\u258116": 1042,
  "\u015fti": 1043,
  "\u2581urma": 1044,
  "ol": 1045,
  "\u2581sti": 1046,
  "im": 1047,
  "\u258114": 1048,
  "\u2581Nici": 1049,
  "\u2581aproape": 1050,
  "\u2581zis": 1051,
  "\u2581Be": 1052,
  "\u015f": 1053,
  "\u2581remember": 1054,
  "\u2581urmare": 1055,
  "\u2581taken": 1056,
  "\u2581lucruri": 1057,
  "\u2581since": 1058,
  "\u2581having": 1059,
  "\u2581social": 1060,
  "ant": 1061,
  "\u2581provided": 1062,
  "\u2581period": 1063,
  "\u2581a\u015f": 1064,
  "and": 1065,
  "\u2581taking": 1066,
  "el": 1067,
  "\u2581bani": 1068,
  "\u2581putut": 1069,
  "\u2581100": 1070,
  "V": 1071,
  "\u2581acesta": 1072,
  "\u2581OK": 1073,
  "\u2581ra": 1074,
  "\u2581Right": 1075,
  "\u258150": 1076,
  "\u2581few": 1077,
  "\u2581support": 1078,
  "\u2581non": 1079,
  "di": 1080,
  "\u2581Ah": 1081,
  "\u2581At": 1082,
  "\u2581primul": 1083,
  "K": 1084,
  "W": 1085,
  "\u2581direct": 1086,
  "\u2581dac": 1087,
  "q": 1088,
  "\u2581singur": 1089,
  "\u2581Of": 1090,
  "\u2581yet": 1091,
  "\u2581working": 1092,
  "\u2581conditions": 1093,
  "ation": 1094,
  "\u2581Me": 1095,
  "\u2581DE": 1096,
  "\u2581Jack": 1097,
  "ck": 1098,
  "\u2581report": 1099,
  "\u2581bring": 1100,
  "\u2581acord": 1101,
  "\u2581services": 1102,
  "\u2581countries": 1103,
  "\u2581Mar": 1104,
  "co": 1105,
  "\u2581via\u0163a": 1106,
  "\u2581hope": 1107,
  "\u258119": 1108,
  "\u2581c\u00e2": 1109,
  "\u2581noastre": 1110,
  "\u2581duc": 1111,
  "\u2581far": 1112,
  "\u2581meet": 1113,
  "ry": 1114,
  "\u2581referred": 1115,
  "\u2581possible": 1116,
  "\u2581yea": 1117,
  "est": 1118,
  "\u2581ajuns": 1119,
  "\u2581idea": 1120,
  "\u2581pune": 1121,
  "\u2581matter": 1122,
  "\u2581aceea": 1123,
  "\u2581nice": 1124,
  "\u2581#": 1125,
  "\u2581ex": 1126,
  "\u2581Pot": 1127,
  "\u2581fun": 1128,
  "\u2581site": 1129,
  "e\u0163i": 1130,
  "\u2581w": 1131,
  "\u258113": 1132,
  "\u2581nimeni": 1133,
  "\u2581baza": 1134,
  "rie": 1135,
  "\u258117": 1136,
  "\u2581Parliament": 1137,
  "\u2581By": 1138,
  "\u2581Dup\u0103": 1139,
  "\u2581regulament": 1140,
  "\u2581necessary": 1141,
  "\u2581economic": 1142,
  "able": 1143,
  "\u2581See": 1144,
  "pe": 1145,
  "\u2581bune": 1146,
  "ui": 1147,
  "w": 1148,
  "ow": 1149,
  "\u2581poli": 1150,
  "\u2581heard": 1151,
  "\u2581online": 1152,
  "\u2581Man": 1153,
  "ile": 1154,
  "\u2581=": 1155,
  "\u2581\u00eent\u00e2mpl\u0103": 1156,
  "\u2581risk": 1157,
  "\u2581transport": 1158,
  "\u2581problem": 1159,
  "\u0163e": 1160,
  "\u2581cauza": 1161,
  "\u2581turn": 1162,
  "\u2581\u00eempotriva": 1163,
  "\u258124": 1164,
  "\u2581pic": 1165,
  "\u2581tale": 1166,
  "sta": 1167,
  "\u2581esti": 1168,
  "n\u0103": 1169,
  "ilor": 1170,
  "\u2581heart": 1171,
  "r\u0103": 1172,
  "ad": 1173,
  "\u2581sta": 1174,
  "toare": 1175,
  "chi": 1176,
  "\u2581law": 1177,
  "\u2581knew": 1178,
  "\u2581total": 1179,
  "\u2581urm\u0103": 1180,
  "\u2581afar\u0103": 1181,
  "ting": 1182,
  "\u2581once": 1183,
  "\u2581rules": 1184,
  "_": 1185,
  "\u2581idee": 1186,
  "\u2581contact": 1187,
  "\u2581baby": 1188,
  "\u2581dau": 1189,
  "at\u0103": 1190,
  "\u2581vezi": 1191,
  "\u2581woman": 1192,
  "my": 1193,
  "ment": 1194,
  "ex": 1195,
  "\u2581human": 1196,
  "\u2581t\u00e2rziu": 1197,
  "\u2581\u0162i": 1198,
  "\u2581ago": 1199,
  "et": 1200,
  "\u2581product": 1201,
  "\u2581Mo": 1202,
  "ter": 1203,
  "lo": 1204,
  "no": 1205,
  "\u2581fa\u0163\u0103": 1206,
  "\u2581ajuta": 1207,
  "\u2581Sti": 1208,
  "\u2581Wait": 1209,
  "\u2581saying": 1210,
  "\u2581informa": 1211,
  "\u2581wa": 1212,
  "tic": 1213,
  "\u2581specific": 1214,
  "a\u015f": 1215,
  "\u2581fiind": 1216,
  "\u2581Domnul": 1217,
  "\u2581seama": 1218,
  "\u2581du": 1219,
  "\u2581maybe": 1220,
  "\u2581av\u00e2nd": 1221,
  "\u2581pus": 1222,
  "\u2581side": 1223,
  "\u2581vedem": 1224,
  "\u2581lua": 1225,
  "\u2581alt\u0103": 1226,
  "\u2581given": 1227,
  "\u2581months": 1228,
  "j": 1229,
  "\u2581wife": 1230,
  "\u2581final": 1231,
  "\u2581respect": 1232,
  "eaza": 1233,
  "\u2581prieten": 1234,
  "\u2581ele": 1235,
  "ica": 1236,
  "\u2581sex": 1237,
  "\u2581certain": 1238,
  "\u2581says": 1239,
  "\u0219i": 1240,
  "ni": 1241,
  "za": 1242,
  "\u2581program": 1243,
  "\u2581morning": 1244,
  "\u2581actually": 1245,
  "\u2581These": 1246,
  "com": 1247,
  "\u2581move": 1248,
  "\u2581Di": 1249,
  "\u2581plus": 1250,
  "\u2581imediat": 1251,
  "\u2581drac": 1252,
  "\u2581Iar": 1253,
  "\u2581Aceasta": 1254,
  "\u2581regard": 1255,
  "\u2581inclusiv": 1256,
  "\u2581power": 1257,
  "\u2581authorities": 1258,
  "bi": 1259,
  "dy": 1260,
  "\u2581ora": 1261,
  "\u2581Z": 1262,
  "ity": 1263,
  "\u2581punctul": 1264,
  "\u2581killed": 1265,
  "1": 1266,
  "\u2581test": 1267,
  "\u2581Ia": 1268,
  "al\u0103": 1269,
  "\u2581ore": 1270,
  "\u2581able": 1271,
  "ge": 1272,
  "\u2581Europe": 1273,
  "J": 1274,
  "ule": 1275,
  "\u258121": 1276,
  "\u2581Pa": 1277,
  "fara": 1278,
  "\u2581school": 1279,
  "ir": 1280,
  "\u2581domeniul": 1281,
  "\u2581casa": 1282,
  "\u2581Noi": 1283,
  "\u2581interest": 1284,
  "\u2581func": 1285,
  "\u2581ac": 1286,
  "men": 1287,
  "\u2581exemplu": 1288,
  "Y": 1289,
  "\u2581treatment": 1290,
  "\u2581departe": 1291,
  "\u2581Jesus": 1292,
  "ive": 1293,
  "ler": 1294,
  "\u2581friends": 1295,
  "cuze": 1296,
  "\u2581times": 1297,
  "\u2581shi": 1298,
  "\u2581include": 1299,
  "\u2581celor": 1300,
  "\u2581Decision": 1301,
  "\u2581guess": 1302,
  "\u2581account": 1303,
  "\u2581ensure": 1304,
  "\u2581ready": 1305,
  "\u2581ajunge": 1306,
  "\u2581full": 1307,
  "\u2581plecat": 1308,
  "\u2581grij\u0103": 1309,
  "\u2581Have": 1310,
  "ha": 1311,
  "\u2581na": 1312,
  "\u2581Take": 1313,
  "\u2581third": 1314,
  "vi": 1315,
  "ner": 1316,
  "\u2581OF": 1317,
  "\u2581alone": 1318,
  "\u2581cap": 1319,
  "\u2581alt": 1320,
  "\u2581nicio": 1321,
  "\u2581run": 1322,
  "\u2581available": 1323,
  "\u2581iau": 1324,
  "\u2581ti": 1325,
  "\u2581D\u0103": 1326,
  "tia": 1327,
  "\u2581Sam": 1328,
  "The": 1329,
  "\u2581Aici": 1330,
  "\u2581anexa": 1331,
  "\u2581produse": 1332,
  "\u2581vorbesc": 1333,
  "\u2581development": 1334,
  "\u2581vine": 1335,
  "\u2581With": 1336,
  "\u2581drept": 1337,
  "\u2581lucrurile": 1338,
  "\u2581perfect": 1339,
  "\u2581EUR": 1340,
  "\u2581prive\u0219te": 1341,
  "\u2581dumneavoastr\u0103": 1342,
  "\u2581d\u0103": 1343,
  "\u2581mul\u0163": 1344,
  "\u258122": 1345,
  "\u2581Community": 1346,
  "sh": 1347,
  "\u2581question": 1348,
  "\u2581ales": 1349,
  "\u2581later": 1350,
  "\u2581hours": 1351,
  "\u2581phone": 1352,
  "\u2581application": 1353,
  "by": 1354,
  "\u2581Na": 1355,
  "\u2581camera": 1356,
  "\u2581po": 1357,
  "\u2581Ver": 1358,
  "\u2581dreptate": 1359,
  "\u2581pierdut": 1360,
  "\u2581via\u0163\u0103": 1361,
  "\u25812.": 1362,
  "\u2581duce": 1363,
  "\u2581true": 1364,
  "\u2581film": 1365,
  "nu": 1366,
  "\u2581needs": 1367,
  "\u2581permite": 1368,
  "\u2581posibil": 1369,
  "\u2581Committee": 1370,
  "\u2581vin": 1371,
  "\u00ee\u015fi": 1372,
  "\u2581local": 1373,
  "ard": 1374,
  "\u2581paragraph": 1375,
  "ur": 1376,
  "\u2581li": 1377,
  "ling": 1378,
  "\u2581dus": 1379,
  "\u2581prev\u0103zute": 1380,
  "\u2581met": 1381,
  "\u2581h": 1382,
  "\u2581fact": 1383,
  "\u2581food": 1384,
  "\u2581vorba": 1385,
  "\u2581crezut": 1386,
  "\u258131": 1387,
  "*": 1388,
  "\u2581cam": 1389,
  "\u2581making": 1390,
  "\u2581+": 1391,
  "\u2581probleme": 1392,
  "\u2581Sorr": 1393,
  "\u2581Ta": 1394,
  "\u2581death": 1395,
  "\u0163iilor": 1396,
  "\u2581diferite": 1397,
  "\u2581listen": 1398,
  "\u2581energy": 1399,
  "\u2581primit": 1400,
  "\u0163ilor": 1401,
  "\u0162": 1402,
  "ah": 1403,
  "ba": 1404,
  "\u2581normal": 1405,
  "\u00een": 1406,
  "\u2581Ha": 1407,
  "\u2581Pre": 1408,
  "ati": 1409,
  "\u2581anti": 1410,
  "\u2581Moldova": 1411,
  "\u2581less": 1412,
  "\u2581tuturor": 1413,
  "\u2581Sigur": 1414,
  "\u2581using": 1415,
  "\u2581copil": 1416,
  "\u2581bi": 1417,
  "\u2581_": 1418,
  "\u2581greu": 1419,
  "\u2581lost": 1420,
  "\u2581Will": 1421,
  "pa": 1422,
  "\u2581erau": 1423,
  "\u2581nivelul": 1424,
  "\u2581gone": 1425,
  "\u2581close": 1426,
  "\u2581brother": 1427,
  "\u2581myself": 1428,
  "\u2581Stop": 1429,
  "mp": 1430,
  "tan": 1431,
  "gas": 1432,
  "\u2581provide": 1433,
  "\u2581repede": 1434,
  "\u2581siguran": 1435,
  "\u2581r": 1436,
  "\u2581soon": 1437,
  "\u2581legal": 1438,
  "\u2581wants": 1439,
  "\u2581Ja": 1440,
  "\u2581Like": 1441,
  "\u2581(3)": 1442,
  "\u2581terminat": 1443,
  "\u2581minutes": 1444,
  "tul": 1445,
  "\u2581lume": 1446,
  "\u2581seara": 1447,
  "huh": 1448,
  "\u2581young": 1449,
  "\u2581late": 1450,
  "\u2581requirements": 1451,
  "\u2581service": 1452,
  "\u2581line": 1453,
  "\u2581Con": 1454,
  "\u2581deal": 1455,
  "lin": 1456,
  "\u2581Acesta": 1457,
  "\u2581type": 1458,
  "\u2581pro": 1459,
  "ver": 1460,
  "\u2581aplic\u0103": 1461,
  "\u2581four": 1462,
  "op": 1463,
  "\u2581fata": 1464,
  "\u2581five": 1465,
  "mm": 1466,
  "\u2581bar": 1467,
  "\u2581policy": 1468,
  "esti": 1469,
  "ase": 1470,
  "\u2581credit": 1471,
  "\u2581light": 1472,
  "\u2581act": 1473,
  "\u2581exact": 1474,
  "\u2581patru": 1475,
  "\u2581million": 1476,
  "fi": 1477,
  "ke": 1478,
  "ster": 1479,
  "cat": 1480,
  "\u2581haven": 1481,
  "\u258123": 1482,
  "\u2581Vi": 1483,
  "\u2581company": 1484,
  "stiu": 1485,
  "\u2581anyone": 1486,
  "\u2581pay": 1487,
  "\u2581\u015ftie": 1488,
  "\u2581Tell": 1489,
  "\u2581common": 1490,
  "\u2581necesar": 1491,
  "\u2581His": 1492,
  "\u2581inter": 1493,
  "\u2581die": 1494,
  "\u2581num\u0103rul": 1495,
  "\u2581persoane": 1496,
  "\u258140": 1497,
  "?\"": 1498,
  "\u2581mei": 1499,
  "\u2581post": 1500,
  "gi": 1501,
  "\u2581gave": 1502,
  "vah": 1503,
  "\u2581ap\u0103": 1504,
  "\u2581decision": 1505,
  "\u2581force": 1506,
  "ism": 1507,
  "\"?": 1508,
  "\u2581printr": 1509,
  "\u2581Ra": 1510,
  "\u2581relevant": 1511,
  "\u2581file": 1512,
  "\u2581m\u0103suri": 1513,
  "\u2581security": 1514,
  "\u25814.": 1515,
  "\u2581become": 1516,
  "\u2581Pro": 1517,
  "\u2581management": 1518,
  "\u2581door": 1519,
  "\u2581azi": 1520,
  "\u2581singur\u0103": 1521,
  "eu": 1522,
  "\u2581hurt": 1523,
  "\u2581ajutor": 1524,
  "\u2581Jeho": 1525,
  "\u2581ml": 1526,
  "\u2581murit": 1527,
  "\u2581noapte": 1528,
  "\u2581Sau": 1529,
  "\u2581Mult": 1530,
  "\u2581child": 1531,
  "nic": 1532,
  "\u2581cannot": 1533,
  "\u2581appropriate": 1534,
  "sti": 1535,
  "\u2581anul": 1536,
  "per": 1537,
  "\u2581fire": 1538,
  "\u2581doua": 1539,
  "ies": 1540,
  "\u2581happy": 1541,
  "onale": 1542,
  "\u2581trebuit": 1543,
  "\u2581aid": 1544,
  "\u2581Real": 1545,
  "\u2581g\u0103si": 1546,
  "\u2581party": 1547,
  "tat": 1548,
  "\u2581par": 1549,
  "\u2581baz\u0103": 1550,
  "\u2581makes": 1551,
  "\u2581Ro": 1552,
  "\u2581Directiva": 1553,
  "\u2581\u00eenc\u00e2t": 1554,
  "go": 1555,
  "lui": 1556,
  "\u2581aduce": 1557,
  "\u2581David": 1558,
  "\u2581cale": 1559,
  "\u2581facut": 1560,
  "\u2581thinking": 1561,
  "\u2581ucis": 1562,
  "\u2581Wien": 1563,
  "\u2581\u00eencepe": 1564,
  "\u2581cut": 1565,
  "id": 1566,
  "\u2581rest": 1567,
  "a\u021bi": 1568,
  "\u2581protection": 1569,
  "\u2581milioane": 1570,
  "\u2581based": 1571,
  "\u2581cer": 1572,
  "e\u0219ti": 1573,
  "\u2581clear": 1574,
  "\u2581week": 1575,
  "\u2581\u00eens\u0103": 1576,
  "\u2581women": 1577,
  "\u2581pu\u021bin": 1578,
  "\u2581capital": 1579,
  "\u2581therefore": 1580,
  "tii": 1581,
  "\u2581iubesc": 1582,
  "\u2581stai": 1583,
  "\u2022": 1584,
  "\u2581future": 1585,
  "\u2581word": 1586,
  "\u2581half": 1587,
  "re\u015f": 1588,
  "\u2581small": 1589,
  "\u2581either": 1590,
  "ary": 1591,
  "ang": 1592,
  "\u2581bucur": 1593,
  "\u2581YOU": 1594,
  "\u2581hit": 1595,
  "\u2581tat\u0103l": 1596,
  "ice": 1597,
  "\u2581active": 1598,
  "land": 1599,
  "\u2581tonight": 1600,
  "\u2581yes": 1601,
  "\u2581mic": 1602,
  "\u2581whether": 1603,
  "\u2581bed": 1604,
  "\u2581deoarece": 1605,
  "\u2581Ok": 1606,
  "\u25812009": 1607,
  "\u2581\u00cel": 1608,
  "\u2581Frank": 1609,
  "\u2581Tom": 1610,
  "\u2581city": 1611,
  "\u2581book": 1612,
  "\u2581vreo": 1613,
  "\u2581gata": 1614,
  "\u25813.": 1615,
  "\u2581Ieho": 1616,
  "\u2581tipul": 1617,
  "\u2581access": 1618,
  "\u2581leg\u0103tur\u0103": 1619,
  "\u2581America": 1620,
  "\u2581provisions": 1621,
  "ty": 1622,
  "\u2581b\u0103ie": 1623,
  "\u2581cauz\u0103": 1624,
  "\u2581happen": 1625,
  "ness": 1626,
  "\u2581Vino": 1627,
  "sa": 1628,
  "\u2581read": 1629,
  "\u2581$": 1630,
  "\u2581asked": 1631,
  "\u2581thank": 1632,
  "\u2581basis": 1633,
  "\u258126": 1634,
  "\u2581reason": 1635,
  "\u2581Car": 1636,
  "\u2581unele": 1637,
  "\u2581view": 1638,
  "\u2581informa\u021bii": 1639,
  "\u2581acestora": 1640,
  "\u2581Cel": 1641,
  "\u2581ultima": 1642,
  "\u2581Uit": 1643,
  "\u2581Hotel": 1644,
  "\u0103\u0163ii": 1645,
  "ier": 1646,
  "\u2581Y": 1647,
  "\u2581acestor": 1648,
  "\u2581necesare": 1649,
  "\u2581drumul": 1650,
  "\u2581further": 1651,
  "\u2581ciudat": 1652,
  "\u2581lung": 1653,
  "ga": 1654,
  "\u2581Ben": 1655,
  "\u2581air": 1656,
  "ze": 1657,
  "\u2581known": 1658,
  "\u2581frumos": 1659,
  "itatea": 1660,
  "\u2581apar": 1661,
  "\u2581adus": 1662,
  "\u2581\u00een\u0163eleg": 1663,
  "\u2581chesti": 1664,
  "\u2581dose": 1665,
  "\u2581concerned": 1666,
  "\u2581veni": 1667,
  "der": 1668,
  "\u2581punct": 1669,
  "\u2581President": 1670,
  "\u2581banii": 1671,
  "\u25811,": 1672,
  "\u2581activities": 1673,
  "\u2581euro": 1674,
  "ov": 1675,
  "\u2581servicii": 1676,
  "\u2581Dac": 1677,
  "ible": 1678,
  "\u2581After": 1679,
  "\u2581knows": 1680,
  "\u2581situa": 1681,
  "easc\u0103": 1682,
  "\u2581beautiful": 1683,
  "\u2581problem\u0103": 1684,
  "ho": 1685,
  "\u2581nou\u0103": 1686,
  "\u2581action": 1687,
  "\u2581group": 1688,
  "ea": 1689,
  "\u2581X": 1690,
  "\u2581plac": 1691,
  "\u2581Mama": 1692,
  "\u2581Las\u0103": 1693,
  "\u2581apply": 1694,
  "\u2581top": 1695,
  "\u2581femeie": 1696,
  "\u2581Paul": 1697,
  "\u0219": 1698,
  "\u2581simplu": 1699,
  "\u2581cinci": 1700,
  "\u258128": 1701,
  "\u2581fight": 1702,
  "\u2581treab": 1703,
  "line": 1704,
  "hi": 1705,
  "\u2581tomorrow": 1706,
  "\u2581g\u00e2ndit": 1707,
  "\u2581However": 1708,
  "\u0163": 1709,
  "ren": 1710,
  "\u2581Ho": 1711,
  "\u2581office": 1712,
  "\u2581value": 1713,
  "\u2581telefon": 1714,
  "\u2581hands": 1715,
  "\u2581mereu": 1716,
  "\u2581kid": 1717,
  "\u2581probabil": 1718,
  "\u2581omule": 1719,
  "\u2581problema": 1720,
  "\u2581dai": 1721,
  "\u2581worry": 1722,
  "\u2581truth": 1723,
  "ent": 1724,
  "\u2581police": 1725,
  "\u258127": 1726,
  "\u00e2ndu": 1727,
  "\u2581check": 1728,
  "\u2581inside": 1729,
  "l\u0103": 1730,
  "na\u0163i": 1731,
  "\u2581stuff": 1732,
  "\u2581acestui": 1733,
  "\u2581vorbit": 1734,
  "\u2581subject": 1735,
  "nt": 1736,
  "\u2581acestei": 1737,
  "\u2581comes": 1738,
  "\u2581sf\u00e2r": 1739,
  "\u2581Our": 1740,
  "age": 1741,
  "\u2581eyes": 1742,
  "so": 1743,
  "\u2581Jo": 1744,
  "\u2581dis": 1745,
  "\u2581cont": 1746,
  "4": 1747,
  "\u2581probably": 1748,
  "\u2581financiare": 1749,
  "\u2581Parlamentului": 1750,
  "\u2581r\u0103m\u00e2ne": 1751,
  "\u2581m\u0103car": 1752,
  "\u2581Crez": 1753,
  "\u0163ei": 1754,
  "\u2581European\u0103": 1755,
  "\u2581condi": 1756,
  "\u2581December": 1757,
  "itate": 1758,
  "\u2581intre": 1759,
  "\u2581Listen": 1760,
  "\u2581mort": 1761,
  "\u2581single": 1762,
  "\u2581kids": 1763,
  "\u2581chance": 1764,
  "torul": 1765,
  "\u2581hold": 1766,
  "\u2581impact": 1767,
  ");": 1768,
  "\u2581Europa": 1769,
  "li": 1770,
  "pt": 1771,
  "dic\u0103": 1772,
  "\u2581everyone": 1773,
  "\u2581mici": 1774,
  "\u2581Apoi": 1775,
  "\u2581temeiul": 1776,
  "lu": 1777,
  "lia": 1778,
  "\u2581Dad": 1779,
  "\u2581wish": 1780,
  "\u2581easy": 1781,
  "\u2581crede": 1782,
  "ger": 1783,
  "onal": 1784,
  "\u2581super": 1785,
  "\u25810": 1786,
  "\u2581process": 1787,
  "ja": 1788,
  "\u2581sun": 1789,
  "data": 1790,
  "\u2581familia": 1791,
  "\u2581started": 1792,
  "\u2581locuri": 1793,
  "\u2581Any": 1794,
  "\u2581Vezi": 1795,
  "\u2581exactly": 1796,
  "\u2581brought": 1797,
  "lie": 1798,
  "\u2581international": 1799,
  "spre": 1800,
  "\u2581York": 1801,
  "ka": 1802,
  "\u2581Give": 1803,
  "ak": 1804,
  "vin": 1805,
  "rios": 1806,
  "ous": 1807,
  "\u2581secret": 1808,
  "con": 1809,
  "bo": 1810,
  "oare": 1811,
  "om": 1812,
  "ste": 1813,
  "\u2581prezentul": 1814,
  "\u2581price": 1815,
  "\u2581C\u00e2t": 1816,
  "\u2581\u00eencercat": 1817,
  "\u2581production": 1818,
  "\u2581dad": 1819,
  "\u2581anumite": 1820,
  "lan": 1821,
  "\u2581dintr": 1822,
  "\u2581list": 1823,
  "\u2581situation": 1824,
  "\u2581supposed": 1825,
  "\u2581P\u0103i": 1826,
  "\u2581town": 1827,
  "\u2581plec": 1828,
  "\u2581A\u015f": 1829,
  "\u2581eram": 1830,
  "\u2581text": 1831,
  "\u2581Jim": 1832,
  "\u2581um": 1833,
  "\u2581past": 1834,
  "\u2581\u00eentruc\u00e2t": 1835,
  "\u2581l\u00e2ng\u0103": 1836,
  "\u2581perioada": 1837,
  "\u2581referitoare": 1838,
  "\u2581eat": 1839,
  "\u2581feeling": 1840,
  "\u2581sent": 1841,
  "\u2581vreodat\u0103": 1842,
  "\u2581termen": 1843,
  "EEC": 1844,
  "\u2581l\u0103sat": 1845,
  "\u2581Su": 1846,
  "\u2581vederea": 1847,
  "\u2581rights": 1848,
  "\u2581momentul": 1849,
  "\u2581health": 1850,
  "\u2581shot": 1851,
  "\u2581meeting": 1852,
  "\u2581story": 1853,
  "\u2581\u00cenc\u0103": 1854,
  "\u2581outside": 1855,
  "\u2581cand": 1856,
  "\u2581present": 1857,
  "\u0103la": 1858,
  "\u2581prost": 1859,
  "\u2581noroc": 1860,
  "iv": 1861,
  "\u2581Hav": 1862,
  "\u2581Miss": 1863,
  "\u2581k": 1864,
  "\u2581pick": 1865,
  "\u2581form": 1866,
  "\u2581Esti": 1867,
  "\u0219ti": 1868,
  "CEE": 1869,
  "\u2581Isus": 1870,
  "\u2581TO": 1871,
  "les": 1872,
  "\u2581Her": 1873,
  "\u2581San": 1874,
  "\u2581s\u00e2nge": 1875,
  "ung": 1876,
  "Nu": 1877,
  "ful": 1878,
  "\u2581sector": 1879,
  "\u2581St": 1880,
  "\u2581tare": 1881,
  "\u25812010": 1882,
  "tata": 1883,
  "\u2581Nothing": 1884,
  "ator": 1885,
  "\u2581dreptul": 1886,
  "\u2581mic\u0103": 1887,
  "\u2581a\u0219a": 1888,
  "tra": 1889,
  "\u2581amount": 1890,
  "\u2581natural": 1891,
  "\u2581Lord": 1892,
  "\u2581uita": 1893,
  "\u2581s\u0103pt\u0103m\u00e2ni": 1894,
  "\u2581arat\u0103": 1895,
  "tori": 1896,
  "\u2581dori": 1897,
  "\u25812008": 1898,
  "\u2581publice": 1899,
  "\u021bii": 1900,
  "\u2581war": 1901,
  "\u2581urmeaz\u0103": 1902,
  "\u2581sleep": 1903,
  "\u2581prezenta": 1904,
  "\u2581griji": 1905,
  "\u2581merg": 1906,
  "\u2581Joe": 1907,
  "\u2581conform": 1908,
  "\u2581safety": 1909,
  "ita": 1910,
  "\u2581private": 1911,
  "\u2581though": 1912,
  "\u2581team": 1913,
  "aj": 1914,
  "\u2581\u00eencredere": 1915,
  "\u2581z": 1916,
  "ve\u0163i": 1917,
  "\u2581utilizarea": 1918,
  "\u2581scris": 1919,
  "\u0103\u0163i": 1920,
  "\u2581sistem": 1921,
  "\u2581rate": 1922,
  "pi": 1923,
  "\u2581fa\u0163a": 1924,
  "\u2581looks": 1925,
  "old": 1926,
  "\u2581procedure": 1927,
  "ach": 1928,
  "\u2581daughter": 1929,
  "\u2581aib\u0103": 1930,
  "\u2581Sir": 1931,
  "\u021bie": 1932,
  "\u2581above": 1933,
  "\u2581ave\u0163i": 1934,
  "\u2581persoan\u0103": 1935,
  "\u2581crazy": 1936,
  "\u2581reprezint\u0103": 1937,
  "\u2581Vom": 1938,
  "\u2581Sper": 1939,
  "\u2581Christ": 1940,
  "\u2581uitat": 1941,
  "\u25812017": 1942,
  "\u258129": 1943,
  "\u2581France": 1944,
  "\u2581III": 1945,
  "ana": 1946,
  "\u2581zon\u0103": 1947,
  "\u25812016": 1948,
  "\u2581\u00een\u0163eles": 1949,
  "\u2581litera": 1950,
  "\u2581front": 1951,
  "\u2581safe": 1952,
  "\u2581mul\u0163i": 1953,
  "rile": 1954,
  "\u2581weeks": 1955,
  "can": 1956,
  "\u2581nume": 1957,
  "ofti": 1958,
  "\u2581Crede": 1959,
  "\u2581decembrie": 1960,
  "\u2581Ac": 1961,
  "\u2581Toate": 1962,
  "\u2581walk": 1963,
  "\u2581serious": 1964,
  "\u2581urm\u0103toarele": 1965,
  "\u2581asigura": 1966,
  "\u2581trece": 1967,
  "\u0103rii": 1968,
  "\u2581material": 1969,
  "\u2581due": 1970,
  "\u2581sim\u0163i": 1971,
  "\u25812013": 1972,
  "\u2581trimis": 1973,
  "\u2581drink": 1974,
  "\u2581prezent": 1975,
  "\u2581duci": 1976,
  "\u2581Bun": 1977,
  "\u2581hot": 1978,
  "\u2581statelor": 1979,
  "onat": 1980,
  "\u2581clar": 1981,
  "\u2581motiv": 1982,
  "\u2581tau": 1983,
  "\u2581gas": 1984,
  "\u2581trust": 1985,
  "\u2581authority": 1986,
  "\u2581respective": 1987,
  "\u2581dl": 1988,
  "\u2581m\u00e2ine": 1989,
  "\u258160": 1990,
  "\u25812011": 1991,
  "\u021b\u0103": 1992,
  "\u2581others": 1993,
  "\u2581implementation": 1994,
  "\u2581Treaty": 1995,
  "\u2581cas\u0103": 1996,
  "\u2581considered": 1997,
  "\u2581opinion": 1998,
  "\u2581video": 1999,
  "\u2581Foar": 2000,
  "\u2581schimb": 2001,
  "xcuse": 2002,
  "ite": 2003,
  "\u2581living": 2004,
  "ura": 2005,
  "\u2581continuare": 2006,
  "\u2581drum": 2007,
  "cul": 2008,
  "ic\u0103": 2009,
  "\u2581Ke": 2010,
  "\u2581continue": 2011,
  "\u2581husband": 2012,
  "ale": 2013,
  "rs": 2014,
  "\u2581behind": 2015,
  "\u2581Michael": 2016,
  "\u2581scar": 2017,
  "\u2581George": 2018,
  "\u2581crime": 2019,
  "\u2581mom": 2020,
  "\u2581words": 2021,
  "\u2581AND": 2022,
  "\u2581Nimic": 2023,
  "\u2581six": 2024,
  "\u2581stand": 2025,
  "\u2581Agreement": 2026,
  "\u2581mers": 2027,
  "\u2581news": 2028,
  "\u2581principal": 2029,
  "\u2581Aceast": 2030,
  "\u2581seem": 2031,
  "6": 2032,
  "\u2581noaptea": 2033,
  "\u2581cat": 2034,
  "\u2581trade": 2035,
  "\u2581results": 2036,
  "\u2581so\u0163i": 2037,
  "\u2581effects": 2038,
  "\u2581reduce": 2039,
  "\u2581standard": 2040,
  "\u2581\u00eentotdeauna": 2041,
  "\u2581July": 2042,
  "\u2581speak": 2043,
  "\u2581legate": 2044,
  "\u2581fiul": 2045,
  "\u25812,": 2046,
  "\u2581raport": 2047,
  "\u2581died": 2048,
  "\u2581main": 2049,
  "\u2581\u00centr": 2050,
  "ker": 2051,
  "\u2581calitate": 2052,
  "\u2581required": 2053,
  "\u2581applicable": 2054,
  "\u2581similar": 2055,
  "port": 2056,
  "\u25812014": 2057,
  "body": 2058,
  "\u2581upon": 2059,
  "\u2581acel": 2060,
  "\u2581poveste": 2061,
  "\u2581established": 2062,
  "\u2581costs": 2063,
  "\u2581accident": 2064,
  "\u2581almost": 2065,
  "\u2581lose": 2066,
  "urilor": 2067,
  "\u2581Every": 2068,
  "\u2581General": 2069,
  "\u00e9": 2070,
  "\u2581mie": 2071,
  "\u2581needed": 2072,
  "\u2581acea": 2073,
  "\u2581gun": 2074,
  "\u2581afraid": 2075,
  "\u2581complet": 2076,
  "\u2581Peter": 2077,
  "\u2581increase": 2078,
  "\u2581Ex": 2079,
  "he": 2080,
  "fa": 2081,
  "\u2581quality": 2082,
  "U": 2083,
  "\u2581cases": 2084,
  "ance": 2085,
  "\u2581watch": 2086,
  "\u2581break": 2087,
  "\u2581\u00eentorc": 2088,
  "\u2581pun": 2089,
  "\u2581maximum": 2090,
  "\u2581study": 2091,
  "\u2581articolului": 2092,
  "\u2581Chi": 2093,
  "\u2581among": 2094,
  "\u2581bag": 2095,
  "\u2581along": 2096,
  "\u2581ini": 2097,
  "\u2581auto": 2098,
  "\u2581prins": 2099,
  "\u2581vii": 2100,
  "\u2581Mom": 2101,
  "\u2581key": 2102,
  "use": 2103,
  "\u2581land": 2104,
  "\u2581ast\u0103zi": 2105,
  "\u2581animal": 2106,
  "\u2581project": 2107,
  "\u2581niciun": 2108,
  "\u2581dr\u0103g": 2109,
  "\u2581field": 2110,
  "\u2581folosi": 2111,
  "\u2581modul": 2112,
  "\u2581reac": 2113,
  "\u2581contract": 2114,
  "00": 2115,
  "\u2581mm": 2116,
  "\u2581goes": 2117,
  "\u2581produs": 2118,
  "\u2581afaceri": 2119,
  "\u2581mo": 2120,
  "\u2581adopted": 2121,
  "\u2581pu": 2122,
  "rau": 2123,
  "\u2581cunoscut": 2124,
  "\u2581ochii": 2125,
  "nta": 2126,
  "\u2581March": 2127,
  "\u2581men\u021bionate": 2128,
  "\u2581longer": 2129,
  "\u2581vorbim": 2130,
  "po": 2131,
  "\u2581example": 2132,
  "ac": 2133,
  "arry": 2134,
  "AL": 2135,
  "\u2581send": 2136,
  "\u2581Cor": 2137,
  "\u2581Ga": 2138,
  "\u2581Bar": 2139,
  "\u2581dolari": 2140,
  "\u2581return": 2141,
  "\u2581Mm": 2142,
  "oas\u0103": 2143,
  "\u2581corect": 2144,
  "\u2581systems": 2145,
  "\u2581forget": 2146,
  "\u2581model": 2147,
  "\u2581\u0219tiu": 2148,
  "\u2581Statele": 2149,
  "\u2581TV": 2150,
  "\u2581vigoare": 2151,
  "\u2581problems": 2152,
  "\u0103ri": 2153,
  "turi": 2154,
  "\u2581sort": 2155,
  "mar": 2156,
  "ru": 2157,
  "\u2581tried": 2158,
  "\u2581Dumnezeule": 2159,
  "we": 2160,
  "\u2581Aceste": 2161,
  "\u2581folosit": 2162,
  "\u2581evidence": 2163,
  "hose": 2164,
  "quite": 2165,
  "\u2581Che": 2166,
  "\u2581position": 2167,
  "\u2581com": 2168,
  "\u2581rapid": 2169,
  "II": 2170,
  "\u2581administrative": 2171,
  "\u2581Bo": 2172,
  "\u2581respectiv": 2173,
  "\u2581age": 2174,
  "\u2581competent": 2175,
  "\u2581areas": 2176,
  "\u2581waiting": 2177,
  "ish": 2178,
  "\u2581couple": 2179,
  "\u2581u\u015for": 2180,
  "\u2581married": 2181,
  "\u25812012": 2182,
  "of": 2183,
  "\u2581sweet": 2184,
  "\u2581scopul": 2185,
  "\u2581suplimentare": 2186,
  "\u2581vorbi": 2187,
  "ud": 2188,
  "\u2581spa": 2189,
  "\u2581June": 2190,
  "\u2581ajutorul": 2191,
  "ING": 2192,
  "\u2581Court": 2193,
  "\u2581United": 2194,
  "ron": 2195,
  "\u2581cost": 2196,
  "\u2581rela": 2197,
  "\u2581according": 2198,
  "\u2581Would": 2199,
  "\u2581solu": 2200,
  "\u2581girls": 2201,
  "\u021bia": 2202,
  "\u2581devenit": 2203,
  "\u25812007": 2204,
  "\u2581Does": 2205,
  "\u2581specifice": 2206,
  "\u2581From": 2207,
  "\u2581medical": 2208,
  "min": 2209,
  "day": 2210,
  "\u2581Sure": 2211,
  "\u2581european": 2212,
  "\u2581save": 2213,
  "erry": 2214,
  "\u2581pat": 2215,
  "\u2581Romania": 2216,
  "\u2581l\u0103sa": 2217,
  "\u2581cunosc": 2218,
  "\u2581decizie": 2219,
  "\u2581Fi": 2220,
  "\u2581answer": 2221,
  "\u2581related": 2222,
  "\u2581concerning": 2223,
  "\u2581Gra": 2224,
  "\u2581mor": 2225,
  "\u2581experience": 2226,
  "\u2581familie": 2227,
  "\u2581copiii": 2228,
  "\u00e2": 2229,
  "ori": 2230,
  "\u2581Sun": 2231,
  "\u2581laid": 2232,
  "\u00fe": 2233,
  "\u2581risc": 2234,
  "\u2581punere": 2235,
  "\u2581himself": 2236,
  "\u2581cre\u015fte": 2237,
  "\u2581sit": 2238,
  "\u2581Decizia": 2239,
  "\u2581km": 2240,
  "ran": 2241,
  "dar": 2242,
  "\u2581Ti": 2243,
  "\u2581effect": 2244,
  "\u2581research": 2245,
  "\u2581works": 2246,
  "\u25815.": 2247,
  "\u2581document": 2248,
  "\u2581\u0219ti": 2249,
  "\u2581deci": 2250,
  "\u0163inut": 2251,
  "\u2581\u00eemp": 2252,
  "\u2581drag": 2253,
  "\u2581ha": 2254,
  "\u2581\u00cei": 2255,
  "\u2581zona": 2256,
  "\u2581trebuia": 2257,
  "\u2581t\u0103i": 2258,
  "\u2581intra": 2259,
  "tura": 2260,
  "\u2581drive": 2261,
  "\u2581parents": 2262,
  "\u2581technical": 2263,
  "\u2581Har": 2264,
  "\u2581anymore": 2265,
  "ick": 2266,
  "\u2581short": 2267,
  "\u2581m\u0103sur\u0103": 2268,
  "\u2581near": 2269,
  "\u2581major": 2270,
  "\u2581decide": 2271,
  "less": 2272,
  "\u2581\u015e": 2273,
  "\u2581buy": 2274,
  "\u2581aproximativ": 2275,
  "\u2581telling": 2276,
  "\u2581mediu": 2277,
  "\u2581Consiliul": 2278,
  "\u2581cur\u00e2nd": 2279,
  "\u2581C\u0103": 2280,
  "\u2581comun\u0103": 2281,
  "s\u0103": 2282,
  "\u2581lives": 2283,
  "\u2581energie": 2284,
  "\u2581pute\u0163i": 2285,
  "\u2581imagine": 2286,
  "\u2581\u00eentoarce": 2287,
  "\u2581minunat": 2288,
  "\u2581Even": 2289,
  "ct": 2290,
  "\u2581altceva": 2291,
  "\u2581Cha": 2292,
  "\u2581building": 2293,
  "\u2581Charlie": 2294,
  "\u2581Ascult\u0103": 2295,
  "7": 2296,
  "\u2581]": 2297,
  "\u2581supra": 2298,
  "for": 2299,
  "\u2581individual": 2300,
  "ko": 2301,
  "\u2581poti": 2302,
  "our": 2303,
  "\u2581spirit": 2304,
  "\u2581idio": 2305,
  "\u2581large": 2306,
  "\u2581cooperation": 2307,
  "iere": 2308,
  "\u2581Face": 2309,
  "\u2581low": 2310,
  "\u2581(4)": 2311,
  "\u2581intr\u0103": 2312,
  "\u2581government": 2313,
  "\u2581Israel": 2314,
  "\u2581r\u00e2nd": 2315,
  "\u2581serios": 2316,
  "\u2581sistemul": 2317,
  "\u2581iunie": 2318,
  "\u25812015": 2319,
  "\u2581hair": 2320,
  "out": 2321,
  "\u2581europene": 2322,
  "\u2581radio": 2323,
  "\u2581inima": 2324,
  "ec": 2325,
  "\u2581Republic": 2326,
  "\u2581Max": 2327,
  "\u2581jum\u0103tate": 2328,
  "\u2581music": 2329,
  "\u2581acces": 2330,
  "n\u0163a": 2331,
  "\u2581afla": 2332,
  "\u2581consider\u0103": 2333,
  "\u0163ele": 2334,
  "\u2581m\u0103surile": 2335,
  "vo": 2336,
  "mer": 2337,
  "\u2581result": 2338,
  "\u2581Exact": 2339,
  "\u2581acela\u015f": 2340,
  "ind": 2341,
  "\u2581Str": 2342,
  "\u2581import": 2343,
  "\u2581trouble": 2344,
  "\u2581fat\u0103": 2345,
  "\u2581\u00eentreb": 2346,
  "\u2581Nimeni": 2347,
  "nie": 2348,
  "\u2581levels": 2349,
  "\u2581vreme": 2350,
  "adev\u0103r": 2351,
  "n\u0163\u0103": 2352,
  "\u2581dezvoltare": 2353,
  "\u2581Salut": 2354,
  "\u2581weight": 2355,
  "\u2581primi": 2356,
  "tu": 2357,
  "\u2581January": 2358,
  "\u015fina": 2359,
  "lic": 2360,
  "\u2581adverse": 2361,
  "\u2581members": 2362,
  "\u2581anume": 2363,
  "ino": 2364,
  "\u2581spate": 2365,
  "\u2581r\u0103spuns": 2366,
  "\u2581Zo": 2367,
  "\u2581Desigur": 2368,
  "\u2581Mike": 2369,
  "\u2581aten": 2370,
  "\u2581Ka": 2371,
  "ns": 2372,
  "\u2581iei": 2373,
  "\u2581liber": 2374,
  "\u2581lead": 2375,
  "sunat": 2376,
  "\u2581American": 2377,
  "\u2581pace": 2378,
  "end": 2379,
  "rul": 2380,
  "\u2581offer": 2381,
  "a\u015fin\u0103": 2382,
  "tur": 2383,
  "\u2581alive": 2384,
  "\u2581perioad\u0103": 2385,
  "\u2581\u00eentors": 2386,
  "\u2581sister": 2387,
  "\u2581Exist\u0103": 2388,
  "\u2581etc": 2389,
  "\u2581questions": 2390,
  "\u2581intr": 2391,
  "\u2581points": 2392,
  "\u2581Sha": 2393,
  "\u2581win": 2394,
  "\u2581pur": 2395,
  "time": 2396,
  "\u2581Ve": 2397,
  "ona": 2398,
  "ally": 2399,
  "\u2581Two": 2400,
  "\u2581num\u0103r": 2401,
  "\u2581Probabil": 2402,
  "\u2581sense": 2403,
  "\u2581Um": 2404,
  "ack": 2405,
  "\u2581(\"": 2406,
  "\u2581deschide": 2407,
  "\u2581prieteni": 2408,
  "\u2581early": 2409,
  "\u2581sens": 2410,
  "\u2581tocmai": 2411,
  "De": 2412,
  "\u2581yours": 2413,
  "\u2581nebun": 2414,
  "\u2581purpose": 2415,
  "\u2581valoarea": 2416,
  "\u2581strong": 2417,
  "\u2581pleca": 2418,
  "\u2581calm": 2419,
  "\u2581Christian": 2420,
  "\u2581F\u0103r\u0103": 2421,
  "\u2581y": 2422,
  "elor": 2423,
  "\u2581ofer\u0103": 2424,
  "\u2581added": 2425,
  "g\u0103": 2426,
  "\u2581opera": 2427,
  "ot": 2428,
  "\u2581Asa": 2429,
  "\u2581form\u0103": 2430,
  "\u2581or\u0103": 2431,
  "\u2581Great": 2432,
  "\u2581current": 2433,
  "\u2581\u00ee\u0219i": 2434,
  "\u2581pain": 2435,
  "\u2581vina": 2436,
  "\u2581comun": 2437,
  "\u2581\u0163ine": 2438,
  "\u2581hour": 2439,
  "\u2581minimum": 2440,
  "unea": 2441,
  "\u2581kg": 2442,
  "\u2581Tri": 2443,
  "ong": 2444,
  "\u2581ianuarie": 2445,
  "\u2581ba": 2446,
  "\u2581somebody": 2447,
  "\u2581whatever": 2448,
  "\u2581programme": 2449,
  "\u2581seems": 2450,
  "\u2581miss": 2451,
  "\u2581considerare": 2452,
  "\u2581Fa": 2453,
  "\u2581white": 2454,
  "\u2581sound": 2455,
  "\u2581follow": 2456,
  "\u2581cover": 2457,
  "\u2581produselor": 2458,
  "\u2581industry": 2459,
  "\u2581Lo": 2460,
  "\u2581viitoare": 2461,
  "pre": 2462,
  "\u2581address": 2463,
  "\u2581dog": 2464,
  "friend": 2465,
  "right": 2466,
  "\u2581acela": 2467,
  "ok": 2468,
  "\u2581afl\u0103": 2469,
  "\u2581baie": 2470,
  "\u2581s\u00e3": 2471,
  "\u2581pui": 2472,
  "\u2581Keep": 2473,
  "\u2581m\u00e2na": 2474,
  "\u2581femei": 2475,
  "\u2581involved": 2476,
  "\u2581hate": 2477,
  "ria": 2478,
  "\u2581pia\u021b\u0103": 2479,
  "\u2581running": 2480,
  "\u2581JO": 2481,
  "\u2581black": 2482,
  "\u2581Paris": 2483,
  "\u2581na\u021bionale": 2484,
  "\u2581terms": 2485,
  "\u2581doilea": 2486,
  "\u2581request": 2487,
  "\u2581thereof": 2488,
  "\u2581Oric": 2489,
  "\u2581auzi": 2490,
  "oc": 2491,
  "\u2581CE": 2492,
  "\u2581training": 2493,
  "\u2581r\u0103mas": 2494,
  "You": 2495,
  "...\"": 2496,
  "\u2581Pute": 2497,
  "\u2581pas\u0103": 2498,
  "\u2581ajut": 2499,
  "\u2581Dan": 2500,
  "fe": 2501,
  "\u2581share": 2502,
  "\u2581assessment": 2503,
  "\u2581En": 2504,
  "\u2581Gu": 2505,
  "\u2581Africa": 2506,
  "\u2581200": 2507,
  "\u2581ahead": 2508,
  "\u2581cause": 2509,
  "\u2581extra": 2510,
  "\u2581October": 2511,
  "\u2581stabilite": 2512,
  "\u2581dup": 2513,
  "ever": 2514,
  "\u2581recent": 2515,
  "\u2581Doctor": 2516,
  "\u2581protect": 2517,
  "ocmai": 2518,
  "\u2581ajung": 2519,
  "\u2581comune": 2520,
  "\u2581murder": 2521,
  "\u2581intrat": 2522,
  "\u2581OJ": 2523,
  "\u2581j": 2524,
  "\u2581agent": 2525,
  "8": 2526,
  "\u2581fericit": 2527,
  "\u2581stau": 2528,
  "\u2581Which": 2529,
  "\u2581descurc": 2530,
  "\u2581zici": 2531,
  "\u2581civil": 2532,
  "\u2581spatele": 2533,
  "\u2581tratament": 2534,
  "\u2581criminal": 2535,
  "\u2581National": 2536,
  "jurul": 2537,
  "\u2581computer": 2538,
  "\u2581grozav": 2539,
  "\u2581aflat": 2540,
  "\u2581face\u0163i": 2541,
  "\u258190": 2542,
  "oase": 2543,
  "way": 2544,
  "\u2581boys": 2545,
  "\u2581proposal": 2546,
  "\u2581mar": 2547,
  "\u2581received": 2548,
  "\u2581suficient": 2549,
  "gu": 2550,
  "tele": 2551,
  "\u2581agreement": 2552,
  "rah": 2553,
  "\u2581places": 2554,
  "\u2581dezvoltarea": 2555,
  "ss": 2556,
  "):": 2557,
  "\u2581iulie": 2558,
  "\u2581Uniunea": 2559,
  "tar": 2560,
  "\u2581Hu": 2561,
  "\u2581Bib": 2562,
  "\u2581putin": 2563,
  "\u2581takes": 2564,
  "Z": 2565,
  "\u2581month": 2566,
  "\u2581CESE": 2567,
  "\u2581political": 2568,
  "\u2581securitate": 2569,
  "\u2581club": 2570,
  "\u2581aer": 2571,
  "\u2581IN": 2572,
  "\u2581client": 2573,
  "\u2581responsible": 2574,
  "\u2581aren": 2575,
  "\u2581port": 2576,
  "\u2581valoare": 2577,
  "\u2581IT": 2578,
  "\u2581ones": 2579,
  "\u2581goods": 2580,
  "\u2581vorbe\u015fti": 2581,
  "!\"": 2582,
  "ng": 2583,
  "\u2581transfer": 2584,
  "\u2581b\u0103rbat": 2585,
  "\u2581dans": 2586,
  "\u2581First": 2587,
  "\u2581companies": 2588,
  "\u2581Mac": 2589,
  "torii": 2590,
  "\u2581additional": 2591,
  "\u2581road": 2592,
  "No": 2593,
  "\u2581learn": 2594,
  "\u2581directly": 2595,
  "\u2581multi": 2596,
  "\u2581interesante": 2597,
  "\u2581equipment": 2598,
  "\u0163ile": 2599,
  "ff": 2600,
  "\u2581simple": 2601,
  "\u2581Economic": 2602,
  "\u2581materie": 2603,
  "\u2581Sta": 2604,
  "\u2581tri": 2605,
  "Putem": 2606,
  "\u2581Tra": 2607,
  "den": 2608,
  "\u2581imp": 2609,
  "\u2581War": 2610,
  "\u2581Social": 2611,
  "\u25812006": 2612,
  "\u2581across": 2613,
  "\u2581octombrie": 2614,
  "\u25816.": 2615,
  "\u2581James": 2616,
  "\u015fte": 2617,
  "ora\u015f": 2618,
  "\u2581increased": 2619,
  "ya": 2620,
  "onal\u0103": 2621,
  "\u2581carried": 2622,
  "\u2581earth": 2623,
  "\u2581effective": 2624,
  "\u2581table": 2625,
  "\u2581paid": 2626,
  "\u2581step": 2627,
  "\u2581Only": 2628,
  "\u2581everybody": 2629,
  "\u2581fast": 2630,
  "ire": 2631,
  "ag": 2632,
  "\u021ba": 2633,
  "\u2581rather": 2634,
  "\u2581China": 2635,
  "\u2581Ri": 2636,
  "\u2581capul": 2637,
  "\u2581prive\u015fte": 2638,
  "\u2581god": 2639,
  "\u2581central": 2640,
  "\u2581Mon": 2641,
  "\u2581complete": 2642,
  "\u2581several": 2643,
  "\u2581foc": 2644,
  "tri": 2645,
  "\u2581vechi": 2646,
  "\u2581sign": 2647,
  "\u2581Vin": 2648,
  "\u2581often": 2649,
  "asca": 2650,
  "\u015ful": 2651,
  "\u2581sectorul": 2652,
  "\u2581space": 2653,
  "\u2581decided": 2654,
  "gar": 2655,
  "\u2581framework": 2656,
  "5": 2657,
  "\u2581Mary": 2658,
  "amp": 2659,
  "\u2581oferi": 2660,
  "\u2581produsele": 2661,
  "\u2581animals": 2662,
  "\u2581obicei": 2663,
  "\u258180": 2664,
  "\u2581renu": 2665,
  "\u2581Other": 2666,
  "\u2581favorit": 2667,
  "\u2581forma": 2668,
  "\u2581uite": 2669,
  "\u2581April": 2670,
  "\u2581cross": 2671,
  "\u2581utilizate": 2672,
  "\u2581studies": 2673,
  "\u25813,": 2674,
  "\u2581necesar\u0103": 2675,
  "\u2581history": 2676,
  "\u2581condi\u021bii": 2677,
  "\u2581cerut": 2678,
  "\u2581choice": 2679,
  "\u2581role": 2680,
  "mon": 2681,
  "\u2581spiritual": 2682,
  "ki": 2683,
  "\u2581red": 2684,
  "\u2581Park": 2685,
  "\u2581caut": 2686,
  "\u2581Per": 2687,
  "\u2581Gre": 2688,
  "eni": 2689,
  "\u2581roman": 2690,
  "bb": 2691,
  "\u2581\u00eencerc": 2692,
  "\u2581promise": 2693,
  "\u2581aduc": 2694,
  "ph": 2695,
  "\u2581crea": 2696,
  "\u2581Gar": 2697,
  "\u2581ter": 2698,
  "\u2581Hold": 2699,
  "\u2581intermediul": 2700,
  "\u2581Ko": 2701,
  "\u2581altor": 2702,
  "\u2581singura": 2703,
  "\u2581potential": 2704,
  "\u2581r\u0103zboi": 2705,
  "\u2581beat": 2706,
  "\u2581solution": 2707,
  "\u2581visit": 2708,
  "\u2581disease": 2709,
  "ara": 2710,
  "\u2581financiar": 2711,
  "\u2581activity": 2712,
  "\u2581fratele": 2713,
  "\u2581held": 2714,
  "\u2581procedures": 2715,
  "\u2581Gi": 2716,
  "\u2581dispozi": 2717,
  "\u2581Bu": 2718,
  "\u2581pressure": 2719,
  "\u2581cancer": 2720,
  "\u2581issue": 2721,
  "\u2581addition": 2722,
  "\u2581puternic": 2723,
  "About": 2724,
  "\u2581Alo": 2725,
  "\u2581stupid": 2726,
  "\u2581spital": 2727,
  "\u2581odat\u0103": 2728,
  "where": 2729,
  "\u2581leaving": 2730,
  "\u2581aminte": 2731,
  "ip": 2732,
  "devar": 2733,
  "\u2581sick": 2734,
  "que": 2735,
  "\u2581ten": 2736,
  "\u2581box": 2737,
  "bra": 2738,
  "\u2581King": 2739,
  "atul": 2740,
  "\u2581apa": 2741,
  "\u2581datelor": 2742,
  "\u2581gasi": 2743,
  "\u2581EESC": 2744,
  "In": 2745,
  "\u2581prezint\u0103": 2746,
  "\u2581persons": 2747,
  "\u2581eye": 2748,
  "\u2581potrivit": 2749,
  "\u2581Comitetul": 2750,
  "\u2581shoot": 2751,
  "ball": 2752,
  "ari": 2753,
  "\u2581martie": 2754,
  "\u2581\u00eent\u00e2mpla": 2755,
  "\u2581host": 2756,
  "\u2581sistemului": 2757,
  "\u2581Got": 2758,
  "\u2581allow": 2759,
  "\u2581punerea": 2760,
  "\u2581animale": 2761,
  "\u2581Shi": 2762,
  "\u2581context": 2763,
  "\u2581November": 2764,
  "\u2581reference": 2765,
  "tiv": 2766,
  "gh": 2767,
  "\u2581Tel": 2768,
  "\u2581cool": 2769,
  "\u2581crescut": 2770,
  "\u2581More": 2771,
  "\u2581copilul": 2772,
  "\u2581aplicarea": 2773,
  "\u2581Instan": 2774,
  "\u2581playing": 2775,
  "\u2581code": 2776,
  "\u2581devreme": 2777,
  "\u2581Mor": 2778,
  "\u2581Tratatul": 2779,
  "\u2581entire": 2780,
  "\u2581Sch": 2781,
  "\u2581Art": 2782,
  "\u2581Uniune": 2783,
  "\u2581fall": 2784,
  "\u2581tax": 2785,
  "\u2581resources": 2786,
  "\u2581minte": 2787,
  "ber": 2788,
  "\u2581proprii": 2789,
  "\u2581figure": 2790,
  "eam": 2791,
  "\u2581pute": 2792,
  "sau": 2793,
  "\u2581dinner": 2794,
  "\u2581thanks": 2795,
  "\u2581class": 2796,
  "\u2581disponibile": 2797,
  "\u2581lista": 2798,
  "tion": 2799,
  "\u2581changes": 2800,
  "\u2581instrument": 2801,
  "han": 2802,
  "\u2581Ni": 2803,
  "ici": 2804,
  "\u2581Data": 2805,
  "\u2581tat\u0103": 2806,
  "\u2581star": 2807,
  "mail": 2808,
  "\u2581las": 2809,
  "\u2581acid": 2810,
  "\u2581nature": 2811,
  "\u2581South": 2812,
  "\u2581consider": 2813,
  "ise": 2814,
  "\u2581touch": 2815,
  "tro": 2816,
  "ten": 2817,
  "\u2581economice": 2818,
  "\u2581covered": 2819,
  "\u2581responsabil": 2820,
  "\u2581Comisie": 2821,
  "\u2581Captain": 2822,
  "ning": 2823,
  "oneaz\u0103": 2824,
  "\u2581enter": 2825,
  "iu": 2826,
  "\u2581\u00eentreag": 2827,
  "\u2581treab\u0103": 2828,
  "\u2581x": 2829,
  "addy": 2830,
  "\u2581ie\u015fi": 2831,
  "\u2581investment": 2832,
  "luck": 2833,
  "\u2581below": 2834,
  "\u2581amended": 2835,
  "\u2581happens": 2836,
  "2,": 2837,
  "\u2581trage": 2838,
  "avi": 2839,
  "hen": 2840,
  "\u2581P\u00e2n": 2841,
  "\u2581il": 2842,
  "\u2581parties": 2843,
  "\u2581ground": 2844,
  "ju": 2845,
  "\u2581institutions": 2846,
  "\u2581internet": 2847,
  "\u2581mergi": 2848,
  "\u2581Numele": 2849,
  "\u2581conduce": 2850,
  "\u2581su": 2851,
  "bar": 2852,
  "\u2581practice": 2853,
  "\u2581pozi": 2854,
  "\u2581bra": 2855,
  "che": 2856,
  "\u2581page": 2857,
  "\u2581uit\u0103": 2858,
  "ize": 2859,
  "anda": 2860,
  "\u2581Nice": 2861,
  "\u2581card": 2862,
  "\u2581global": 2863,
  "mod": 2864,
  "\u2581vin\u0103": 2865,
  "\u2581worked": 2866,
  "\u2581adev\u0103rul": 2867,
  "\u2581giving": 2868,
  "\u2581Za": 2869,
  "\u2581World": 2870,
  "\u2581bank": 2871,
  "\u2581Vei": 2872,
  "20": 2873,
  "\u2581pierde": 2874,
  "tine": 2875,
  "\u2581asking": 2876,
  "ap": 2877,
  "\u2581People": 2878,
  "\u2581fa\u021b\u0103": 2879,
  "\u2581scurt": 2880,
  "\u2581double": 2881,
  "\u2581event": 2882,
  "\u2581standards": 2883,
  "irea": 2884,
  "\u2581Dam": 2885,
  "\u2581statul": 2886,
  "\u2581moarte": 2887,
  "\u2581urm\u0103torul": 2888,
  "\u2581forward": 2889,
  "\u2581Father": 2890,
  "\u2581putere": 2891,
  "\u2581Sp": 2892,
  "\u2581export": 2893,
  "\u2581fim": 2894,
  "verything": 2895,
  "\u2581buni": 2896,
  "\u2581Alex": 2897,
  "\u2581dear": 2898,
  "\u2581reported": 2899,
  "\u2581zic": 2900,
  "\u2581obiectul": 2901,
  "\u2581Jane": 2902,
  "\u2581Henry": 2903,
  "\u2581uit": 2904,
  "ini": 2905,
  "enny": 2906,
  "\u2581performance": 2907,
  "\u2581ultimul": 2908,
  "book": 2909,
  "\u2581gre\u015fit": 2910,
  "\u2581Put": 2911,
  "\u2581autorit\u0103\u021bile": 2912,
  "\u2581fair": 2913,
  "\u2581higher": 2914,
  "\u2581Stev": 2915,
  "\u2581conteaz\u0103": 2916,
  "\u2581record": 2917,
  "rick": 2918,
  "\u2581omul": 2919,
  "\u2581regional": 2920,
  "\u2581las\u0103": 2921,
  "\u2581Book": 2922,
  "\u2581create": 2923,
  "\u2581original": 2924,
  "\u2581message": 2925,
  "ala": 2926,
  "\u2581ship": 2927,
  "\u2581Caz": 2928,
  "ure": 2929,
  "\u2581pleci": 2930,
  "\u2581basic": 2931,
  "\u2581Obiective": 2932,
  "\u2581court": 2933,
  "\u2581sigur\u0103": 2934,
  "\u2581viitor": 2935,
  "\u2581September": 2936,
  "\u2581skin": 2937,
  "\u2581Whereas": 2938,
  "zz": 2939,
  "\u2581mult\u0103": 2940,
  "\u2581Star": 2941,
  "\u2581clean": 2942,
  "\u2581Could": 2943,
  "\u2581capacity": 2944,
  "\u2581schimbat": 2945,
  "\u2581motive": 2946,
  "\u2581mam\u0103": 2947,
  "eti": 2948,
  "tin": 2949,
  "tel": 2950,
  "\u2581ies": 2951,
  "\u2581\u00eent\u00e2i": 2952,
  "\u2581medicamente": 2953,
  "\u2581Help": 2954,
  "\u2581u": 2955,
  "\u2581dez": 2956,
  "\u2581noiembrie": 2957,
  "ney": 2958,
  "\u2581section": 2959,
  "\u2581deloc": 2960,
  "gen": 2961,
  "\u2581damn": 2962,
  "dor": 2963,
  "\u00b6": 2964,
  "\u2581gentle": 2965,
  "\u2581Points": 2966,
  "\u2581continu\u0103": 2967,
  "\u2581ajut\u0103": 2968,
  "cause": 2969,
  "\u2581society": 2970,
  "ix": 2971,
  "\u2581F\u0103": 2972,
  "\u2581region": 2973,
  "yan": 2974,
  "\u2581cazuri": 2975,
  "\u2581altele": 2976,
  "ris": 2977,
  "\u2581vehicle": 2978,
  "tur\u0103": 2979,
  "\u2581alb": 2980,
  "\u2581budget": 2981,
  "\u2581iubit": 2982,
  "\u2581protec": 2983,
  "\u2581Bra": 2984,
  "\u2581especially": 2985,
  "\u2581p\u0103m\u00e2nt": 2986,
  "\u2581International": 2987,
  "\u2581legislation": 2988,
  "%": 2989,
  "ps": 2990,
  "unile": 2991,
  "\u2581evaluare": 2992,
  "\u2581\u00eencerca": 2993,
  "\u2581sociale": 2994,
  "\u2581Cal": 2995,
  "ante": 2996,
  "see": 2997,
  "\u2581jur": 2998,
  "\u2581buna": 2999,
  "\u2581Cineva": 3000,
  "\u2581aprilie": 3001,
  "\u2581zice": 3002,
  "za\u0163i": 3003,
  "\u2581growth": 3004,
  "care": 3005,
  "\u2581Fiecare": 3006,
  "lt": 3007,
  "\u2581amintesc": 3008,
  "\u2581changed": 3009,
  "\u2581included": 3010,
  "\u2581Daniel": 3011,
  "\u2581travel": 3012,
  "\u2581hospital": 3013,
  "\u2581Mark": 3014,
  "\u2581Red": 3015,
  "\u2581\u00eent\u00e2lnire": 3016,
  "\u2581continua": 3017,
  "\u2581format": 3018,
  "\u2581grup": 3019,
  "ED": 3020,
  "ated": 3021,
  "t\u0103\u0163ii": 3022,
  "\u2581Pen": 3023,
  "\u2581Since": 3024,
  "\u015fit": 3025,
  "\u2581bu": 3026,
  "\u2581anului": 3027,
  "rt": 3028,
  "\u2581Tim": 3029,
  "BI": 3030,
  "\u2581honey": 3031,
  "\u2581st\u0103": 3032,
  "\u2581glad": 3033,
  "\u021be": 3034,
  "\u2581function": 3035,
  "\u2581spera": 3036,
  "\u2581500": 3037,
  "\u2581septembrie": 3038,
  "\u2581exista": 3039,
  "\u2581succes": 3040,
  "\u2581attention": 3041,
  "\u2581Unite": 3042,
  "\u2581\u00cenainte": 3043,
  "wi": 3044,
  "\u2581Luc": 3045,
  "if": 3046,
  "11": 3047,
  "\u2581significant": 3048,
  "\u2581300": 3049,
  "\u2581bodies": 3050,
  "\u2581datele": 3051,
  "\u2581lady": 3052,
  "\u2581utilizare": 3053,
  "u\u0163": 3054,
  "\u2581Bank": 3055,
  "ace": 3056,
  "\u2581Internet": 3057,
  "\u2581projects": 3058,
  "\u2581king": 3059,
  "\u2581Imi": 3060,
  "\u2581Astfel": 3061,
  "ibii": 3062,
  "\u2581paper": 3063,
  "ji": 3064,
  "pen": 3065,
  "\u2581pen": 3066,
  "\u2581cold": 3067,
  "AN": 3068,
  "\u2581oamenilor": 3069,
  "\u2581patient": 3070,
  "mo": 3071,
  "\u2581posibilitatea": 3072,
  "vazut": 3073,
  "\u2581deschis": 3074,
  "net": 3075,
  "\u25812000": 3076,
  "\u2581singurul": 3077,
  "\u2581environment": 3078,
  "rat": 3079,
  "gra": 3080,
  "\u2581Ray": 3081,
  "\u2581anyway": 3082,
  "\u2581purposes": 3083,
  "u\u015fit": 3084,
  "50": 3085,
  "\u2581internal": 3086,
  "\u2581themselves": 3087,
  "\u2581operation": 3088,
  "\u2581sea": 3089,
  "you": 3090,
  "\u2581personaj": 3091,
  "\u2581kept": 3092,
  "\u2581acestuia": 3093,
  "\u2581proces": 3094,
  "\u2581Alte": 3095,
  "iz": 3096,
  "ve\u021bi": 3097,
  "\u2581stare": 3098,
  "\u2581IV": 3099,
  "d\u0103": 3100,
  "\u2581bomb": 3101,
  "\u2581tratamentul": 3102,
  "What": 3103,
  "\u2581numit": 3104,
  "IT": 3105,
  "\u2581importante": 3106,
  "\u2581interna": 3107,
  "bi\u015f": 3108,
  "\u2581cursul": 3109,
  "\u2581German": 3110,
  "off": 3111,
  "\u2581Dl": 3112,
  "\u2581frumoas\u0103": 3113,
  "\u2581average": 3114,
  "\u2581trimite": 3115,
  "\u2581Cam": 3116,
  "\u2581software": 3117,
  "\u2581ho": 3118,
  "zant": 3119,
  "X": 3120,
  "\u2581Robert": 3121,
  "\u2581so\u0163": 3122,
  "\u2581restul": 3123,
  "\u2581felt": 3124,
  "\u2581lie": 3125,
  "sear\u0103": 3126,
  "\u2581Oamenii": 3127,
  "IA": 3128,
  "teleg": 3129,
  "uc": 3130,
  "\u2581000": 3131,
  "\u2581issues": 3132,
  "\u2581Turn": 3133,
  "\u2581nenorocit": 3134,
  "ft": 3135,
  "\u2581\u015ftim": 3136,
  "\u2581alin": 3137,
  "\u2581interested": 3138,
  "\u2581moartea": 3139,
  "\u2581self": 3140,
  "su": 3141,
  "\u2581granted": 3142,
  "OJ": 3143,
  "\u2581Adam": 3144,
  "\u2581Toat\u0103": 3145,
  "nes": 3146,
  "\u2581Sub": 3147,
  "\u2581calea": 3148,
  "\u2581photo": 3149,
  "bu": 3150,
  "\u2581rege": 3151,
  "\u2581fund": 3152,
  "\u2581Je": 3153,
  "\u2581stabilit": 3154,
  "\u2581media": 3155,
  "\u2581sp": 3156,
  "\u2581bat": 3157,
  "bye": 3158,
  "\u2581Mel": 3159,
  "\u2581munca": 3160,
  "\u2581Make": 3161,
  "\u2581Contact": 3162,
  "\u2581breakfast": 3163,
  "fer": 3164,
  "\u2581nor": 3165,
  "\u2581grand": 3166,
  "\u2581declarat": 3167,
  "\u2581sc": 3168,
  "\u2581shut": 3169,
  "\u2581waste": 3170,
  "\u2581hi": 3171,
  "mat": 3172,
  "Re": 3173,
  "\u2581doresc": 3174,
  "\u2581m\u00e2ncare": 3175,
  "\u2581Las": 3176,
  "\u2581welcome": 3177,
  "\u2581profit": 3178,
  "\u2581camer\u0103": 3179,
  "\u2581dance": 3180,
  "\u2581inta": 3181,
  "\u2581lovit": 3182,
  "\u258145": 3183,
  "\u2581acesteia": 3184,
  "\u2581pass": 3185,
  "uff": 3186,
  "\u2581color": 3187,
  "gan": 3188,
  "ski": 3189,
  "\u2581Super": 3190,
  "\u2581\u00eent\u00e2lnit": 3191,
  "ific": 3192,
  "\u25814,": 3193,
  "\u2581s\u0103pt\u0103m\u00e2n\u0103": 3194,
  "1,": 3195,
  "\u2581produce": 3196,
  "\u2581adresa": 3197,
  "\u2581Han": 3198,
  "\u2581Buna": 3199,
  "\u2581Germany": 3200,
  "\u2581g\u0103sesc": 3201,
  "lim": 3202,
  "\u2581atac": 3203,
  "\u2581Ad": 3204,
  "\u2581rezerva": 3205,
  "\u2581unii": 3206,
  "\u2581vede": 3207,
  "sc": 3208,
  "\u2581charge": 3209,
  "nis": 3210,
  "\u2581politic\u0103": 3211,
  "\u2581approach": 3212,
  "\u2581Bill": 3213,
  "\u2581Ye": 3214,
  "\u2581\u0218ti": 3215,
  "\u2581f\u0103": 3216,
  "\u2581juca": 3217,
  "\u2581produc": 3218,
  "\u2581excep\u021bia": 3219,
  "\u2581vad\u0103": 3220,
  "\u2581imi": 3221,
  "ek": 3222,
  "\u2581diminea\u0163a": 3223,
  "\u2581establishing": 3224,
  "\u2581electronic": 3225,
  "omething": 3226,
  "\u2581mouth": 3227,
  "una": 3228,
  "nap": 3229,
  "\u2581attack": 3230,
  "\u2581turned": 3231,
  "vers": 3232,
  "\u2581a\u015fteapt\u0103": 3233,
  "\u2581mad": 3234,
  "\u2581m\u0103n\u00e2nc": 3235,
  "\u2581mas\u0103": 3236,
  "\u2581parts": 3237,
  "\u2581carte": 3238,
  "\u2581Min": 3239,
  "od": 3240,
  "\u00c4": 3241,
  "\u2581replaced": 3242,
  "\u2581enjoy": 3243,
  "\u2581serviciu": 3244,
  "JO": 3245,
  ",000": 3246,
  "\u2581utiliza": 3247,
  "\u2581picture": 3248,
  "\u2581towards": 3249,
  "\u2581sensul": 3250,
  "jo": 3251,
  "\u2581content": 3252,
  "\u2581arma": 3253,
  "it\u0103": 3254,
  "\u2581Was": 3255,
  "sen": 3256,
  "\u2581competition": 3257,
  "\u2581muri": 3258,
  "apta": 3259,
  "\u021b": 3260,
  "coal\u0103": 3261,
  "\u2581\u00eenchisoare": 3262,
  "\u2581amu": 3263,
  "\u2581City": 3264,
  "\u2581Ju": 3265,
  "els": 3266,
  "\u2581hai": 3267,
  "abil": 3268,
  "\u2581February": 3269,
  "\u2581Cele": 3270,
  "\u2581condi\u021biile": 3271,
  "\u2581UN": 3272,
  "\u2581bo": 3273,
  "\u2581statului": 3274,
  "\u2581cell": 3275,
  "\u2581floor": 3276,
  "\u2581injection": 3277,
  "\u2581piece": 3278,
  "part": 3279,
  "\u2581education": 3280,
  "\u2581difficult": 3281,
  "\u2581bro": 3282,
  "12": 3283,
  "\u2581prices": 3284,
  "\u2581worth": 3285,
  "\u2581calls": 3286,
  "\u2581member": 3287,
  "\u2581anybody": 3288,
  "\u2581French": 3289,
  "\u2581Poli": 3290,
  "\u2581condition": 3291,
  "\u2581Pat": 3292,
  "\u2581lupta": 3293,
  "\u2581calling": 3294,
  "\u2581ni": 3295,
  "\u2581competente": 3296,
  "rand": 3297,
  "\u2581Say": 3298,
  "pp": 3299,
  "\u2581Christmas": 3300,
  "mmy": 3301,
  "\u258170": 3302,
  "\u2581however": 3303,
  "\u2581apel": 3304,
  "\u2581events": 3305,
  "\u2581Fii": 3306,
  "\u2581anu": 3307,
  "\u25811/": 3308,
  "\u2581proiect": 3309,
  "\u2581whose": 3310,
  "\u2581reach": 3311,
  "\u2581immediately": 3312,
  "\u2581VI": 3313,
  "\u2581efectuate": 3314,
  "\u2581carry": 3315,
  "\u2581catch": 3316,
  "\u2581copiilor": 3317,
  "\u2581Rom\u00e2nia": 3318,
  "\u2581administration": 3319,
  "tit": 3320,
  "\u2581Fine": 3321,
  "\u2581moving": 3322,
  "ony": 3323,
  "\u2581min": 3324,
  "\u2581feet": 3325,
  "\u00e2r": 3326,
  "revedere": 3327,
  "\u2581clinical": 3328,
  "\u2581citizens": 3329,
  "\u2581Wi": 3330,
  "\u2581\u00eentreb\u0103ri": 3331,
  "\u2581vreun": 3332,
  "\u2581investigation": 3333,
  "\u2581Ed": 3334,
  "\u2581fat": 3335,
  "\u2581fell": 3336,
  "\u2581ucide": 3337,
  "\u2581suspect": 3338,
  "\u2581rug\u0103m": 3339,
  "\u2581actions": 3340,
  "\u2581throw": 3341,
  "9": 3342,
  "\u2581Bi": 3343,
  "\u2581prevede": 3344,
  "\u2581relevante": 3345,
  "\u2581cercetare": 3346,
  "\u2581knowledge": 3347,
  "\u2581sometimes": 3348,
  "\u2581sud": 3349,
  "\u2581tehnice": 3350,
  "\u2581haide": 3351,
  "\u2581prietenul": 3352,
  "\u2581regula": 3353,
  "\u258136": 3354,
  "\u2581zece": 3355,
  "\u2581accept": 3356,
  "\u2581genul": 3357,
  "\u2581explain": 3358,
  "\u2581altfel": 3359,
  "\u2581payment": 3360,
  "\u2581pursuant": 3361,
  "\u2581Ze": 3362,
  "\u2581review": 3363,
  "\u2581August": 3364,
  "\u2581agree": 3365,
  "\u2581expect": 3366,
  "tre": 3367,
  "\u2581felul": 3368,
  "du": 3369,
  "\u2581Regulamentului": 3370,
  "\u2581Ste": 3371,
  "\u2581entry": 3372,
  "\u2581actual": 3373,
  "\u2581Prezentul": 3374,
  "\u2581loss": 3375,
  "\u2581Ki": 3376,
  "\u2581en": 3377,
  "\u2581range": 3378,
  "\u2581regarding": 3379,
  "\u2581applied": 3380,
  "\u2581Ci": 3381,
  "\u2581Mam\u0103": 3382,
  "\u2581criteria": 3383,
  "bri": 3384,
  "\u2581House": 3385,
  "\u2581pas": 3386,
  "\u2581ob\u021bine": 3387,
  "\u2581created": 3388,
  "\u2581Lu": 3389,
  "don": 3390,
  "UL": 3391,
  "\u2581echipa": 3392,
  "\u2581Never": 3393,
  "sca": 3394,
  "\u2581fish": 3395,
  "\u2581Sea": 3396,
  "\u2581dorit": 3397,
  "\u2581aud": 3398,
  "\u2581sper": 3399,
  "\u2581existing": 3400,
  "\u2581puterea": 3401,
  "\u2581economic\u0103": 3402,
  "\u2581Domnului": 3403,
  "tice": 3404,
  "\u2581defined": 3405,
  "\u2581cumva": 3406,
  "\u258148": 3407,
  "iile": 3408,
  "\u2581cere": 3409,
  "\u2581vis": 3410,
  "\u2581speciale": 3411,
  "\u2581supply": 3412,
  "rin": 3413,
  "\u2581Sara": 3414,
  "\u2581Richard": 3415,
  "\u2581Carl": 3416,
  "\u2581m\u00e2inile": 3417,
  "\u2581\u0163in": 3418,
  "\u2581Germania": 3419,
  "\u2581fete": 3420,
  "\u2581ad": 3421,
  "\u2581peace": 3422,
  "\u2581completely": 3423,
  "\u2581drag\u0103": 3424,
  "e\u0219te": 3425,
  "\u2581oil": 3426,
  "shot": 3427,
  "\u2581monitoring": 3428,
  "\u2581modificare": 3429,
  "\u2581size": 3430,
  "\u2581utilizeaz\u0103": 3431,
  "\u2581relationship": 3432,
  "\u2581apartment": 3433,
  "\u2581various": 3434,
  "\u258135": 3435,
  "\u2581objectives": 3436,
  "\u2581lu\u0103": 3437,
  "\u2581cuvinte": 3438,
  "wa": 3439,
  "\u2581fear": 3440,
  "mea": 3441,
  "sit": 3442,
  "\u2581born": 3443,
  "\u2581relating": 3444,
  "pro": 3445,
  "hu": 3446,
  "\u2581fault": 3447,
  "\u2581West": 3448,
  "gie": 3449,
  "\u2581scrie": 3450,
  "\u2581similare": 3451,
  "prop": 3452,
  "\u2581finally": 3453,
  "\u2581looked": 3454,
  "\u2581progress": 3455,
  "\u2581trans": 3456,
  "\u015fteapt\u0103": 3457,
  "iei": 3458,
  "\u2581seven": 3459,
  "\u2581THIS": 3460,
  "\u2581analysis": 3461,
  "\u2581dream": 3462,
  "totdeauna": 3463,
  "\u2581straight": 3464,
  "\u2581became": 3465,
  "\u2581CO": 3466,
  "\u2581contains": 3467,
  "\u2581a\u015ftept": 3468,
  "\u2581Ceea": 3469,
  "+": 3470,
  "\u2581dragoste": 3471,
  "\u2581spun\u0103": 3472,
  "\u2581voice": 3473,
  "\u2581exchange": 3474,
  "ide": 3475,
  "\u2581poat\u0103": 3476,
  "\u2581masa": 3477,
  "\u2581Call": 3478,
  "\u2581expected": 3479,
  "\u2581efect": 3480,
  "\u2581Articles": 3481,
  "\u2581acele": 3482,
  "\u258132": 3483,
  "b\u0103": 3484,
  "\u2581daily": 3485,
  "\u2581Hol": 3486,
  "\u2581sentiment": 3487,
  "\u2581prezentului": 3488,
  "niste": 3489,
  "\u2581website": 3490,
  "sign": 3491,
  "\u2581write": 3492,
  "\u2581acela\u0219i": 3493,
  "\u2581studiu": 3494,
  "\u2581SEE": 3495,
  "\u2581Part": 3496,
  "\u2581designed": 3497,
  "\u2581serviciile": 3498,
  "\u2581luna": 3499,
  "her": 3500,
  "\u2581greater": 3501,
  "\u2581associated": 3502,
  "\u2581utilizat": 3503,
  "\u2581restaurant": 3504,
  "\u2581comerciale": 3505,
  "01": 3506,
  "\u2581anterior": 3507,
  "\u2581Kingdom": 3508,
  "\u2581regards": 3509,
  "\u2581furat": 3510,
  "\u2581loved": 3511,
  "\u2581Men": 3512,
  "\u2581treated": 3513,
  "\u2581Ru": 3514,
  "\u2581dr": 3515,
  "\u2581Bob": 3516,
  "\u2581lupt\u0103": 3517,
  "\u2581Republica": 3518,
  "\u2581leg": 3519,
  "\u2581benefit": 3520,
  "\u2581celelalte": 3521,
  "xperien": 3522,
  "ight": 3523,
  "\u2581language": 3524,
  "\u2581medie": 3525,
  "\u2581missing": 3526,
  "\u2581programul": 3527,
  "\u015fe": 3528,
  "\u2581mii": 3529,
  "\u2581beginning": 3530,
  "\u2581r\u0103spunde": 3531,
  "\u2581Home": 3532,
  "\u2581fully": 3533,
  "\u2581itself": 3534,
  "\u2581frate": 3535,
  "\u2581februarie": 3536,
  "\u2581sec": 3537,
  "\u2581Agency": 3538,
  "\u2581ridicat": 3539,
  "05": 3540,
  "\u2581cerin\u021bele": 3541,
  "stin": 3542,
  "\u2581procesul": 3543,
  "\u2581letter": 3544,
  "\u2581unit": 3545,
  "\u2581opt": 3546,
  "\u2581submitted": 3547,
  "\u2581crisis": 3548,
  "\u2581\u021b\u0103ri": 3549,
  "ird": 3550,
  "\u2581term": 3551,
  "\u2581English": 3552,
  "\u2581prezentat": 3553,
  "\u2581Val": 3554,
  "low": 3555,
  "asa": 3556,
  "\u2581Shut": 3557,
  "\u2581pana": 3558,
  "\u2581Comitetului": 3559,
  "\u2581siguran\u021b\u0103": 3560,
  "\u2581tratamentului": 3561,
  "\u2581measure": 3562,
  "\u2581doamn\u0103": 3563,
  "\u2581organiza": 3564,
  "Ce": 3565,
  "\u2581seeing": 3566,
  "fin": 3567,
  "\u2581Ab": 3568,
  "ven": 3569,
  "\u2581trecut\u0103": 3570,
  "nny": 3571,
  "\u2581unto": 3572,
  "\u2581groups": 3573,
  "\u2581Numai": 3574,
  "\u2581board": 3575,
  "\u2581vorbe": 3576,
  "\u2581pia\u021ba": 3577,
  "\u2581intended": 3578,
  "\u2581severe": 3579,
  "dia": 3580,
  "\u2581cre\u015ftin": 3581,
  "\u2581except": 3582,
  "\u2581Sim": 3583,
  "\u2581serie": 3584,
  ":00": 3585,
  "30": 3586,
  "\u2581inca": 3587,
  "\u2581Casa": 3588,
  "over": 3589,
  "\u2581provides": 3590,
  "RE": 3591,
  "\u2581values": 3592,
  "\u2581relax": 3593,
  "\u2581kidd": 3594,
  "\u2581limba": 3595,
  "\u2581van": 3596,
  "log": 3597,
  "\u2581duty": 3598,
  "\u2581Cur": 3599,
  "\u2581curs": 3600,
  "\u2581greutate": 3601,
  "\u2581public\u0103": 3602,
  "cor": 3603,
  "ax": 3604,
  "oh": 3605,
  "\u2581omor\u00e2t": 3606,
  "\u2581Stay": 3607,
  "\u2581Romanian": 3608,
  "\u2581Jos": 3609,
  "\u2581containing": 3610,
  "\u2581pescuit": 3611,
  "\u2581brain": 3612,
  "ham": 3613,
  "\u2581North": 3614,
  "\u2581till": 3615,
  "\u2581separate": 3616,
  "\u25812004": 3617,
  "14": 3618,
  "\u2581poor": 3619,
  "\u2581web": 3620,
  "\u2581department": 3621,
  "down": 3622,
  "\u2581Fran": 3623,
  "\u2581p\u0103r\u021bi": 3624,
  "\u2581adic\u0103": 3625,
  "\u2581Matt": 3626,
  "\u2581happening": 3627,
  "\u2581persoana": 3628,
  "\u0163in": 3629,
  "\u2581Col": 3630,
  "\u2581instruments": 3631,
  "n\u0163i": 3632,
  "\u2581reports": 3633,
  "\u2581smart": 3634,
  "\u2581vre": 3635,
  "\u2581creat": 3636,
  "\u2581coffee": 3637,
  "\u2581Pu": 3638,
  "qui": 3639,
  "car": 3640,
  "\u2581Love": 3641,
  "\u2581deranj": 3642,
  "\u2581unless": 3643,
  "\u2581drepturile": 3644,
  "\u2581prietenii": 3645,
  "\u2581network": 3646,
  "\u2581Nord": 3647,
  "\u2581corespunz\u0103toare": 3648,
  "\u2581\u00cen\u0163eleg": 3649,
  "\u2581picioare": 3650,
  "ering": 3651,
  "zer": 3652,
  "\u2581Acolo": 3653,
  "cy": 3654,
  "ized": 3655,
  "He": 3656,
  "\u2581Big": 3657,
  "veti": 3658,
  "\u2581Mers": 3659,
  "\u2581Vor": 3660,
  "\u2581opri": 3661,
  "\u2581kiss": 3662,
  "asc\u0103": 3663,
  "\u2581Noapte": 3664,
  "term": 3665,
  "ky": 3666,
  "OR": 3667,
  "\u2581\u015fase": 3668,
  "je": 3669,
  "\u2581mess": 3670,
  "\u2581boss": 3671,
  "\u2581ochi": 3672,
  "\u2581Live": 3673,
  "yl": 3674,
  "\u2581directiv\u0103": 3675,
  "\u2581documents": 3676,
  "\u2581starting": 3677,
  "\u2581fix": 3678,
  "\u2581chi": 3679,
  "\u2581To\u0163i": 3680,
  "\u2581choose": 3681,
  "AT": 3682,
  "\u2581noua": 3683,
  "ensiuni": 3684,
  "\u2581India": 3685,
  "\u2581scene": 3686,
  "ating": 3687,
  "\u2581meant": 3688,
  "ou": 3689,
  "\u2581Serbia": 3690,
  "\u2581download": 3691,
  "\u2581specified": 3692,
  "\u2581Journal": 3693,
  "\u2581serviciilor": 3694,
  "\u2581\u015ftiut": 3695,
  "\u2581cop": 3696,
  "sch": 3697,
  "\u2581ban": 3698,
  "sia": 3699,
  "19": 3700,
  "sy": 3701,
  "\u2581negative": 3702,
  "\u2581holiday": 3703,
  "\u2581\u00eencearc\u0103": 3704,
  "\u2581environmental": 3705,
  "din": 3706,
  "\u2581distrac": 3707,
  "\u2581Ch": 3708,
  "\u2581autoritatea": 3709,
  "\u2581b\u0103iat": 3710,
  "cuz\u0103": 3711,
  "\u2581Son": 3712,
  "\u2581r\u00e2": 3713,
  "\u2581\u00eentrebare": 3714,
  "\u2581oferit": 3715,
  "\u2581(5)": 3716,
  "ere": 3717,
  "\u2581zone": 3718,
  "ord": 3719,
  "\u2581spend": 3720,
  "cur": 3721,
  "\u2581improve": 3722,
  "\u2581c\u0103rora": 3723,
  "\u2581controlul": 3724,
  "\u2581rare": 3725,
  "\u2581programmes": 3726,
  "\u2581independent": 3727,
  "\u2581Omul": 3728,
  "\u2581Tat\u0103": 3729,
  "\u2581\u20ac": 3730,
  "\u2581FOR": 3731,
  "\u2581v\u00e2rsta": 3732,
  "\u2581worrie": 3733,
  "\u2581opportunity": 3734,
  "\u0103rile": 3735,
  "\u2581\u00eentrebat": 3736,
  "ddie": 3737,
  "\u2581scop": 3738,
  "\u2581Interpretarea": 3739,
  "\u2581Mas": 3740,
  "\u2581staff": 3741,
  "15": 3742,
  "\u2581round": 3743,
  "\u2581altcineva": 3744,
  "\u2581m\u00e2n\u0103": 3745,
  "\u2581allowed": 3746,
  "\u25812005": 3747,
  "\u2581Trans": 3748,
  "\u2581funds": 3749,
  "\u2581\u00cencerc": 3750,
  "\u2581Tat\u0103l": 3751,
  "\u2581Close": 3752,
  "\u2581recommended": 3753,
  "\u2581Oricum": 3754,
  "\u2581official": 3755,
  "\u2581activit\u0103": 3756,
  "los": 3757,
  "\u2581According": 3758,
  "ucky": 3759,
  "\u2581Tata": 3760,
  "\u2581ga": 3761,
  "\u2581approved": 3762,
  "\u2581Ren": 3763,
  "\u2581dark": 3764,
  "\u2581\u00eencep": 3765,
  "\u2581institu": 3766,
  "\u2581hoteluri": 3767,
  "\u2581decizia": 3768,
  "\u2581teritoriul": 3769,
  "lon": 3770,
  "ring": 3771,
  "\u2581pl\u0103cut": 3772,
  "\u2581aceea\u015f": 3773,
  "but": 3774,
  "\u2581disp\u0103rut": 3775,
  "\u2581Dans": 3776,
  "tate": 3777,
  "\u2581Martin": 3778,
  "25": 3779,
  "\u2581Cr\u0103ciun": 3780,
  "\u2581whom": 3781,
  "izare": 3782,
  "\u2581worse": 3783,
  "\u2581details": 3784,
  "\u2581holding": 3785,
  "\u2581Mag": 3786,
  "\u2581plin": 3787,
  "\u2581alimentare": 3788,
  "gro": 3789,
  "ens": 3790,
  "\u2581faith": 3791,
  "ks": 3792,
  "\u2581Special": 3793,
  "\u2581reasons": 3794,
  "bit": 3795,
  "\u2581Pune": 3796,
  "\u2581plec\u0103m": 3797,
  "\u2581note": 3798,
  "\u2581ter\u021be": 3799,
  "\u2581Angel": 3800,
  "\u2581compared": 3801,
  "Cause": 3802,
  "\u2581observat": 3803,
  "tru": 3804,
  "\u2581Bruxelles": 3805,
  "ette": 3806,
  "\u2581materials": 3807,
  "aza": 3808,
  "\u2581favor": 3809,
  "\u2581diminea\u0163\u0103": 3810,
  "ar\u0103": 3811,
  "\u2581lumina": 3812,
  "\u2581supraveghere": 3813,
  "\u2581base": 3814,
  "\u2581likely": 3815,
  "vis": 3816,
  "\u25815,": 3817,
  "\u2581dreapta": 3818,
  "IN": 3819,
  "\u2581permanent": 3820,
  "\u2581citit": 3821,
  "\u2581lucra": 3822,
  "\u2581minut": 3823,
  "3,": 3824,
  "\u2581assistance": 3825,
  "\u2581ways": 3826,
  "\u2581limited": 3827,
  "\u2581listed": 3828,
  "\u2581Gata": 3829,
  "\u2581Bucur": 3830,
  "casa": 3831,
  "\u2581\u00een\u0103untru": 3832,
  "\u2581planul": 3833,
  "04": 3834,
  "\u2581informa\u021biile": 3835,
  "\u2581strategy": 3836,
  "\u2581Black": 3837,
  "\u2581atent": 3838,
  "80": 3839,
  "mplementing": 3840,
  "ial": 3841,
  "\u2581Check": 3842,
  "DE": 3843,
  "\u2581inten": 3844,
  "\u2581evening": 3845,
  "\u2581dangerous": 3846,
  "\u2581Trebui": 3847,
  "gin": 3848,
  "\u2581.\"": 3849,
  "\u2581cash": 3850,
  "\u2581sora": 3851,
  "40": 3852,
  "\u2581policies": 3853,
  "\u2581response": 3854,
  "\u2581difference": 3855,
  "ani": 3856,
  "val": 3857,
  "\u2581weekend": 3858,
  "\u2581excep": 3859,
  "\u2581professional": 3860,
  "nor": 3861,
  "\u2581important\u0103": 3862,
  "\u2581annual": 3863,
  "\u2581r\u00e2ndul": 3864,
  "\u2581weren": 3865,
  "\u2581sell": 3866,
  "dd": 3867,
  "mice": 3868,
  "\u2581scu": 3869,
  "\u2581adoptat": 3870,
  "\u2581Win": 3871,
  "\u2581Yo": 3872,
  "\u2581Pla": 3873,
  "chet": 3874,
  "\u2581evident": 3875,
  "\u2581rooms": 3876,
  "\u2581lucrat": 3877,
  "\u2581rol": 3878,
  "\u2581Acestea": 3879,
  "\u2581medicine": 3880,
  "\u2581Bel": 3881,
  "yn": 3882,
  "\u2581remain": 3883,
  "\u2581Brussels": 3884,
  "ric": 3885,
  "\u2581schimba": 3886,
  "\u2581atinge": 3887,
  "\u2581150": 3888,
  "\u2581lower": 3889,
  "\u2581persoanelor": 3890,
  "iza": 3891,
  "\u2581constituie": 3892,
  "\u2581approval": 3893,
  "\u2581partner": 3894,
  "\u2581insulin": 3895,
  "\u2581Dur": 3896,
  "\u2581decis": 3897,
  "\u2581\u015fe": 3898,
  "\")": 3899,
  "\u2581fric\u0103": 3900,
  "az": 3901,
  "\u2581grave": 3902,
  "\u2581pre\u0163": 3903,
  "\u2581glum": 3904,
  "\u2581mission": 3905,
  "\u2581Merge": 3906,
  "\u2581Therefore": 3907,
  "how": 3908,
  "\u2581autorit\u0103": 3909,
  "scar": 3910,
  "\u2581g\u00e2ndi": 3911,
  "\u2581conduc": 3912,
  "\u2581Central": 3913,
  "\u2581Official": 3914,
  "\u2581directive": 3915,
  "\u2581sincer": 3916,
  "\u2581voastr\u0103": 3917,
  "\u2581alta": 3918,
  "\u2581status": 3919,
  "\u2581ie\u015fit": 3920,
  "via": 3921,
  "gg": 3922,
  "\u2581director": 3923,
  "\u2581fishing": 3924,
  "\u2581vrem": 3925,
  "\u2581mesaj": 3926,
  "\u2581handle": 3927,
  "\u2581located": 3928,
  "\u2581pan": 3929,
  "\u2581origine": 3930,
  "\u2581ajute": 3931,
  "col": 3932,
  "og": 3933,
  "ero": 3934,
  "\u25812003": 3935,
  "\u2581ro": 3936,
  "\u2581avoid": 3937,
  "\u2581mass": 3938,
  "\u2581search": 3939,
  "tis": 3940,
  "\u2581plans": 3941,
  "\u2581g\u0103sim": 3942,
  "\u2581modern": 3943,
  "\u2581generale": 3944,
  "\u2581puncte": 3945,
  "\u25812002": 3946,
  "\u2581jucat": 3947,
  "ev": 3948,
  "\u2581para": 3949,
  "\u2581add": 3950,
  "\u2581species": 3951,
  "\u2581administrarea": 3952,
  "\u2581stage": 3953,
  "ute": 3954,
  "\u2581interesting": 3955,
  "\u2581build": 3956,
  "\u2581Jak": 3957,
  "\u2581am\u00e2ndoi": 3958,
  "\u2581wine": 3959,
  "ans\u0103": 3960,
  "well": 3961,
  "\u2581proposed": 3962,
  "\u2581\u00eenaintea": 3963,
  "\u2581Boy": 3964,
  "\u2581Three": 3965,
  "\u2581economy": 3966,
  "\u2581Mc": 3967,
  "\u2581vie\u0163ii": 3968,
  "kin": 3969,
  "\u2581dor": 3970,
  "\u2581complex": 3971,
  "\u2581Grand": 3972,
  "\u2581sprijin": 3973,
  "\u2581medicinal": 3974,
  "pan": 3975,
  "\u2581droguri": 3976,
  "\u2581evaluarea": 3977,
  "\u2581Strip": 3978,
  "\u2581Group": 3979,
  "ras": 3980,
  "LE": 3981,
  "\u2581pull": 3982,
  "mit": 3983,
  "\u2581drop": 3984,
  "\u2581speed": 3985,
  "\u2581wonderful": 3986,
  "\u2581wonder": 3987,
  "\u2581PE": 3988,
  "\u2581sup\u0103rat": 3989,
  "\u258138": 3990,
  "\u2581airport": 3991,
  "\u2581design": 3992,
  "\u2581deveni": 3993,
  "\u2581hang": 3994,
  "\u2581erai": 3995,
  "\u2581IS": 3996,
  "ndu": 3997,
  "onate": 3998,
  "rist": 3999,
  "\u2581ride": 4000,
  "\u2581origin": 4001,
  "\u2581procedura": 4002,
  "ada": 4003,
  "\u2581Van": 4004,
  "lf": 4005,
  "\u2581therapy": 4006,
  "all": 4007,
  "Q": 4008,
  "\u2581Par": 4009,
  "\u2581smell": 4010,
  "\u258175": 4011,
  "\u2581published": 4012,
  "\u2581no\u015ftri": 4013,
  "tic\u0103": 4014,
  "\u2581implementing": 4015,
  "EN": 4016,
  "\u2581Parlamentul": 4017,
  "\u2581Mari": 4018,
  "vir": 4019,
  "\u2581Q": 4020,
  "\u2581feed": 4021,
  "\u2581mul\u021bi": 4022,
  "cin": 4023,
  "\u2581cererea": 4024,
  "\u2581wear": 4025,
  "\u2581metal": 4026,
  "\u2581street": 4027,
  "\u2581pl\u0103cere": 4028,
  "edinte": 4029,
  "\u2581speriat": 4030,
  "rant": 4031,
  "\u2581tr\u0103i": 4032,
  "\u2581\u0163ar\u0103": 4033,
  "\u2581Cei": 4034,
  "\u2581receive": 4035,
  "\u2581raportul": 4036,
  "\u2581particularly": 4037,
  "\u2581agricultural": 4038,
  "1/": 4039,
  "oma": 4040,
  "\u2581Minister": 4041,
  "IE": 4042,
  "\u2581pop": 4043,
  "\u2581operations": 4044,
  "\u2581cm": 4045,
  "\u2581Scu": 4046,
  "\u2581quickly": 4047,
  "\u2581certainly": 4048,
  "ence": 4049,
  "\u2581notice": 4050,
  "\u2581train": 4051,
  "17": 4052,
  "\u2581activitatea": 4053,
  "Da": 4054,
  "We": 4055,
  "\u2581Pan": 4056,
  "\u2581Ya": 4057,
  "\u2581Maria": 4058,
  "uta": 4059,
  "Mar": 4060,
  "\u2581Over": 4061,
  "\u2581scump": 4062,
  "\u2581tablets": 4063,
  "\u2581pl\u0103cea": 4064,
  "\u2581placebo": 4065,
  "\u2581caught": 4066,
  "\u2581reducerea": 4067,
  "ted": 4068,
  "\u2581Watch": 4069,
  "\u2581target": 4070,
  "\u2581follows": 4071,
  "\u2581propri": 4072,
  "\u2581thus": 4073,
  "\u2581(1),": 4074,
  "\u2581lumii": 4075,
  "\u2581m\u0103sura": 4076,
  "\u2581instead": 4077,
  "\u2581altul": 4078,
  "\u2581micro": 4079,
  "\u2581responsibility": 4080,
  "\u2581territory": 4081,
  "\u2581protec\u021bie": 4082,
  "\u0219te": 4083,
  "p\u0103": 4084,
  "\u2581EEA": 4085,
  "ON": 4086,
  "\u2581pericol": 4087,
  "\u2581camere": 4088,
  "\u2581articol": 4089,
  "roia": 4090,
  "\u2581telefonul": 4091,
  "\u2581technology": 4092,
  "ane": 4093,
  "bia": 4094,
  "\u2581vostru": 4095,
  "\u2581develop": 4096,
  "\u2581studii": 4097,
  "\u2581Com": 4098,
  "\u2581decisions": 4099,
  "tal": 4100,
  "\u2581played": 4101,
  "\u2581Lui": 4102,
  "\u2581drug": 4103,
  "\u2581stabilire": 4104,
  "\u2581diferen": 4105,
  "\u2581Before": 4106,
  "\u2581lua\u0163i": 4107,
  "\u2581Bur": 4108,
  "\u2581agreed": 4109,
  "ock": 4110,
  "\u2581Next": 4111,
  "\u2581Australia": 4112,
  "\u2581Remember": 4113,
  ".....": 4114,
  "\u2581Kosovo": 4115,
  "\u2581Ge": 4116,
  "\u2581trata": 4117,
  "\u2581markets": 4118,
  "\u2581locale": 4119,
  "cha": 4120,
  "orul": 4121,
  "\u2581gra": 4122,
  "\u2581prison": 4123,
  "\u2581rezultate": 4124,
  "lip": 4125,
  "\u2581gives": 4126,
  "\u2581omor": 4127,
  "edintele": 4128,
  "\u2581gen": 4129,
  "\u2581require": 4130,
  "\u2581Allah": 4131,
  "\u2581wedding": 4132,
  "\u2581birou": 4133,
  "\u2581ascult\u0103": 4134,
  "\u2581introduce": 4135,
  "ux": 4136,
  "\u2581built": 4137,
  "\u2581positive": 4138,
  "\u2581motor": 4139,
  "\u2581nobody": 4140,
  "\u2581paragraf": 4141,
  "\u2581diminea": 4142,
  "\u2581ar\u0103tat": 4143,
  "\u2581followed": 4144,
  "\u2581SA": 4145,
  "\u2581types": 4146,
  "\u2581sh": 4147,
  "\u2581mistake": 4148,
  "\u2581plant": 4149,
  "\u2581usually": 4150,
  "\u2581asigur\u0103": 4151,
  "\u2581High": 4152,
  "\u2581Oficial": 4153,
  "\u2581diferit": 4154,
  "\u2581marketing": 4155,
  "\u2581Actually": 4156,
  "nit": 4157,
  "\u2581middle": 4158,
  "pte": 4159,
  "\u2581oferte": 4160,
  "\u2581biroul": 4161,
  "coala": 4162,
  "\u25817.": 4163,
  "\u2581appreciate": 4164,
  "\u2581petrecere": 4165,
  "\u2581meaning": 4166,
  "bil": 4167,
  "\u2581rezultatele": 4168,
  "\u2581sounds": 4169,
  "\u2581popular": 4170,
  "\u2581pagina": 4171,
  "\u2581carbon": 4172,
  "\u2581cerere": 4173,
  "\u2581prevent": 4174,
  "\u2581mentioned": 4175,
  "\u2581Fer": 4176,
  "\u2581alege": 4177,
  "\u258100": 4178,
  "\u2581Earth": 4179,
  "\u2581discu": 4180,
  "ego": 4181,
  "\u2581Tre": 4182,
  "\u2581jump": 4183,
  "\u2581Anna": 4184,
  "\u2581EUROPEAN": 4185,
  "\u2581s\u0103n\u0103tate": 4186,
  "\u2581vehicles": 4187,
  "\u2581Dis": 4188,
  "\u2581Wa": 4189,
  "\u2581sun\u0103": 4190,
  "ob": 4191,
  "\u2581careful": 4192,
  "\u2581developed": 4193,
  "\u2581join": 4194,
  "ans": 4195,
  "it\u0103\u021bii": 4196,
  "masina": 4197,
  "\u2581\u00eent\u00e2lni": 4198,
  "tive": 4199,
  "\u2581p\u0103": 4200,
  "step": 4201,
  "\u2581administrat": 4202,
  "\u2581written": 4203,
  "\u2581station": 4204,
  "izat": 4205,
  "\u2581numbers": 4206,
  "\u2581ar\u0103t": 4207,
  "\u2581equal": 4208,
  "\u2581materiale": 4209,
  "\u2581Tipul": 4210,
  "\u2581blue": 4211,
  "\u2581medicament": 4212,
  "\u2581drepturilor": 4213,
  "\u2581persoanele": 4214,
  "\u2581\u00eembun\u0103t\u0103\u0163": 4215,
  "ancing": 4216,
  "\u2581totu\u015f": 4217,
  "ene": 4218,
  "\u2581devine": 4219,
  "\u258110.": 4220,
  "unt": 4221,
  "har": 4222,
  "az\u0103": 4223,
  "\u2581lun\u0103": 4224,
  "\u2581existente": 4225,
  "ali": 4226,
  "obby": 4227,
  "\u2581concentra": 4228,
  "\u2581unic": 4229,
  "\u2581Free": 4230,
  "\u25810,": 4231,
  "\u2581ordine": 4232,
  "\u2581count": 4233,
  "\u2581cre": 4234,
  "\u2581eight": 4235,
  "\u2581Lot": 4236,
  "ban": 4237,
  "ER": 4238,
  "\u2581tras": 4239,
  "\u2581marriage": 4240,
  "\u2581fan": 4241,
  "\u2581lying": 4242,
  "\u2581writing": 4243,
  "\u2581population": 4244,
  "\u00een\u0163eles": 4245,
  "\u2581\u015fti\u0163i": 4246,
  "\u2581White": 4247,
  "90": 4248,
  "\u2581foreign": 4249,
  "shi": 4250,
  "\u2581Onc": 4251,
  "bal": 4252,
  "\u2581shows": 4253,
  "\u2581principles": 4254,
  "\u2581prezentate": 4255,
  "\u2581pilot": 4256,
  "\u2581u\u015fa": 4257,
  "\u2581descoperit": 4258,
  "\u2581Prima": 4259,
  "\u2581principle": 4260,
  "\u2581extrem": 4261,
  "\u2581finish": 4262,
  "......": 4263,
  "\u2581Cap": 4264,
  "\u2581property": 4265,
  "fo": 4266,
  "omb": 4267,
  "\u2581guarantee": 4268,
  "\u2581Tar": 4269,
  "\u2581objective": 4270,
  "\u2581villa": 4271,
  "ghi": 4272,
  "\u2581Haid": 4273,
  "\u2581interes": 4274,
  "\u2581pari": 4275,
  "\u2581desigur": 4276,
  "\u2581c\u00e2ine": 4277,
  "\u2581Fe": 4278,
  "cher": 4279,
  "\u2581killer": 4280,
  "\u2581m\u0103surilor": 4281,
  "\u2581permit": 4282,
  "\u2581diverse": 4283,
  "75": 4284,
  "key": 4285,
  "\u2581talent": 4286,
  "\u2581c\u00e3": 4287,
  "\u2581prefer": 4288,
  "\u2581Inter": 4289,
  "in\u0103": 4290,
  "\u2581Most": 4291,
  "La": 4292,
  "\u2581latest": 4293,
  "eth": 4294,
  "\u2581uman": 4295,
  "\u2581acordat": 4296,
  "ES": 4297,
  "Do": 4298,
  "\u2581Mother": 4299,
  "\u2581store": 4300,
  "\u2581tele": 4301,
  "\u2581green": 4302,
  "\u2581salvat": 4303,
  "bor": 4304,
  "\u2581foot": 4305,
  "\u2581caracter": 4306,
  "p\u0103r": 4307,
  "\u2581planet": 4308,
  "18": 4309,
  "cer": 4310,
  "\u2581Euro": 4311,
  "\u2581category": 4312,
  "rc": 4313,
  "\u2581ran": 4314,
  "\u2581prepared": 4315,
  "\u2581func\u021bionarea": 4316,
  "\u2581Today": 4317,
  "\u2581physical": 4318,
  "\u2581Mer": 4319,
  "\u00e2mb": 4320,
  "\u2581destinate": 4321,
  "\u2581majoritatea": 4322,
  "\u2581sugar": 4323,
  "\u2581Roman": 4324,
  "ins": 4325,
  "\u2581moved": 4326,
  "hris": 4327,
  "\u2581Scott": 4328,
  "\u2581substan": 4329,
  "\u2581rule": 4330,
  "\u2581Leave": 4331,
  "\u2581n\u0103scut": 4332,
  "\u2581arme": 4333,
  "\u2581shown": 4334,
  "\u2581Louis": 4335,
  "\u2581audit": 4336,
  "\u00cen": 4337,
  "\u2581\u0163\u0103ri": 4338,
  "cum": 4339,
  "\u2581\u00eenv\u0103\u0163at": 4340,
  "\u2581gold": 4341,
  "\u2581Sud": 4342,
  "\u2581magazin": 4343,
  "\u2581Rose": 4344,
  "\u2581Zoo": 4345,
  "\u2581reglementare": 4346,
  "\u2581tem": 4347,
  "\u2581Back": 4348,
  "\u2581oprit": 4349,
  "\u2581clearly": 4350,
  "\u2581oficial": 4351,
  "\u2581mu": 4352,
  "16": 4353,
  "lar": 4354,
  "\u2581vacan": 4355,
  "\u2581soul": 4356,
  "\u2581\u0219": 4357,
  "\u2581ap\u0103rut": 4358,
  "\u2581Taci": 4359,
  "\u2581communication": 4360,
  "\u0103tor": 4361,
  "\u2581mediului": 4362,
  "\u2581preg\u0103tit": 4363,
  "\u2581v\u00e2rst\u0103": 4364,
  "\u2581ajutat": 4365,
  "0": 4366,
  "\u2581seat": 4367,
  "\u2581emo": 4368,
  "\u2581Director": 4369,
  "\u2581Juli": 4370,
  "\u2581petrece": 4371,
  "\u2581industrial": 4372,
  "\u2581Air": 4373,
  "\u2581apare": 4374,
  "\u2581interne": 4375,
  "dge": 4376,
  "\u2581indiferent": 4377,
  "cia": 4378,
  "row": 4379,
  "let": 4380,
  "\u2581cuv\u00e2nt": 4381,
  "play": 4382,
  "\u2581Jocuri": 4383,
  "\u2581\u00cens\u0103": 4384,
  "\u2581\u0162ine": 4385,
  "\u2581s\u00eent": 4386,
  "\u2581rece": 4387,
  "\u2581imports": 4388,
  "\u2581agricole": 4389,
  "\u2581amazing": 4390,
  "ative": 4391,
  "ew": 4392,
  "aw": 4393,
  "\u2581Green": 4394,
  "\u2581mamei": 4395,
  "\u2581al\u0103turi": 4396,
  "\u2581luate": 4397,
  "US": 4398,
  "\u2581to\u0163ii": 4399,
  "\u258133": 4400,
  "\u2581milk": 4401,
  "\u2581Move": 4402,
  "\u2581workers": 4403,
  "\u2581glass": 4404,
  "\u2581int": 4405,
  "\u2581Should": 4406,
  "\u2581ya": 4407,
  "ola": 4408,
  "\u2581thinks": 4409,
  "\u2581prinde": 4410,
  "\u2581Jan": 4411,
  "nal": 4412,
  "\u2581Bulgaria": 4413,
  "\u2581talked": 4414,
  "\u2581social\u0103": 4415,
  "\u2581Parc": 4416,
  "\u2581blow": 4417,
  "\u2581Singur": 4418,
  "\u2581method": 4419,
  "\u2581inform": 4420,
  "\u2581uneori": 4421,
  "istic": 4422,
  "ors": 4423,
  "\u2581Think": 4424,
  "\u2581combination": 4425,
  "\u2581stea": 4426,
  "\u2581ocup": 4427,
  "\u2581omului": 4428,
  "\u2581noul": 4429,
  "\u2581determined": 4430,
  "It": 4431,
  "\u2581capacitatea": 4432,
  "\u2581Up": 4433,
  "\u2581issued": 4434,
  "\u2581certificate": 4435,
  "\u2581ju": 4436,
  "\u2581centrul": 4437,
  "\u2581authorisation": 4438,
  "\u2581Unul": 4439,
  "\u2581spent": 4440,
  "oara": 4441,
  "\u2581fiindc\u0103": 4442,
  "\u2581sine": 4443,
  "\u2581Kar": 4444,
  "side": 4445,
  "\u2581european\u0103": 4446,
  "\u2581deep": 4447,
  "und": 4448,
  "\u2581ar\u0103ta": 4449,
  "\u2581wall": 4450,
  "king": 4451,
  "\u2581gura": 4452,
  "lyn": 4453,
  "work": 4454,
  "\u2581realizat": 4455,
  "\u2581\u015etia": 4456,
  "\u2581benefits": 4457,
  "sim\u0163it": 4458,
  "\u2581source": 4459,
  "\u2581US": 4460,
  "navir": 4461,
  "ship": 4462,
  "\u2581B\u0103i": 4463,
  "des": 4464,
  "zar": 4465,
  "\u2581military": 4466,
  "\u2581essential": 4467,
  "\u2581Er": 4468,
  "\u2581activ": 4469,
  "\u2581broke": 4470,
  "\u2581symptoms": 4471,
  "\u2581Cat": 4472,
  "\u2581refer\u0103": 4473,
  "pat": 4474,
  "\u2581LA": 4475,
  "\u2581plastic": 4476,
  "\u2581Lucr": 4477,
  "\u2581Lee": 4478,
  "\u2581mearg\u0103": 4479,
  "\u2581acts": 4480,
  "\u2581watching": 4481,
  "\u2581Port": 4482,
  "\u2581factor": 4483,
  "\u2581News": 4484,
  "iti": 4485,
  "\u2581Billy": 4486,
  "\u2581HIV": 4487,
  "\u2581employment": 4488,
  "\u2581tired": 4489,
  "\u2581referin\u021b\u0103": 4490,
  "\u2581semn": 4491,
  "unii": 4492,
  "\u258134": 4493,
  "\u2581interesate": 4494,
  "\u2581matters": 4495,
  "\u2581Iat\u0103": 4496,
  "\u2581track": 4497,
  "house": 4498,
  "\u25816,": 4499,
  "\u2581asigure": 4500,
  "field": 4501,
  "\u2581\u00eenchis": 4502,
  "\u2581beyond": 4503,
  "\u2581quiet": 4504,
  "\u00e1": 4505,
  "\u2581costurile": 4506,
  "\u2581fur": 4507,
  "\u2581ieri": 4508,
  "\u2581Fre": 4509,
  "\u2581activitate": 4510,
  "\u2581plat\u0103": 4511,
  "\u2581secunde": 4512,
  "\u2581evil": 4513,
  "\u2581Mare": 4514,
  "\u2581prove": 4515,
  "\u2581prior": 4516,
  "\u2581financiar\u0103": 4517,
  "\u2581substance": 4518,
  "raj": 4519,
  "io": 4520,
  "\u2581familiei": 4521,
  "\u2581to\u021bi": 4522,
  "\u2581window": 4523,
  "\u2581femeile": 4524,
  "astic": 4525,
  "\u2581president": 4526,
  "\u2581total\u0103": 4527,
  "\u2581ball": 4528,
  "\u2581rost": 4529,
  "\u2581cooperare": 4530,
  "hmm": 4531,
  "\u2581anywhere": 4532,
  "\u2581BE": 4533,
  "\u2581instrumente": 4534,
  "\u2581extreme": 4535,
  "\u2581gratuit": 4536,
  "\u2581bal": 4537,
  "dam": 4538,
  "i\u015fti": 4539,
  "eff": 4540,
  "\u2581cafea": 4541,
  "\u2581trip": 4542,
  "\u2581limit": 4543,
  "\u2581church": 4544,
  "\u2581provision": 4545,
  "\u2581surface": 4546,
  "ude": 4547,
  "\u2581treat": 4548,
  "\u2581dur": 4549,
  "\u2581caracteristici": 4550,
  "\u2581Gal": 4551,
  "\u2581cheam\u0103": 4552,
  "\u2581politica": 4553,
  "war": 4554,
  "\u2581Mal": 4555,
  "\u2581normele": 4556,
  "oane": 4557,
  "\u2581center": 4558,
  "mes": 4559,
  "\u2581problemele": 4560,
  "ius": 4561,
  "vor": 4562,
  "\u2581regulamentul": 4563,
  "\u2581pie\u021bei": 4564,
  "\u2581aplicabile": 4565,
  "las": 4566,
  "ious": 4567,
  "\u2581Out": 4568,
  "\u2581rates": 4569,
  "\u2581st": 4570,
  "\u2581machine": 4571,
  "\u2581budd": 4572,
  "\u2581insurance": 4573,
  "EL": 4574,
  "\u2581Fac": 4575,
  "\u2581elemente": 4576,
  "\u2581fixed": 4577,
  "\u2581voie": 4578,
  "\u2581prev\u0103zut\u0103": 4579,
  "year": 4580,
  "\u2581stopped": 4581,
  "\u2581Play": 4582,
  "\u2581focus": 4583,
  "ros": 4584,
  "\u2581billion": 4585,
  "\u2581carne": 4586,
  "\u2581oricare": 4587,
  "\u2581saved": 4588,
  "\u2581vote": 4589,
  "\u2581doz\u0103": 4590,
  "\u2581seconds": 4591,
  "\u2581busy": 4592,
  "\u2581scoate": 4593,
  "\u2581operator": 4594,
  "\u2581aplica": 4595,
  "zo": 4596,
  "\u2581driving": 4597,
  "\u2581circumstances": 4598,
  "\u2581scheme": 4599,
  "\u258139": 4600,
  "\u2581via\u021b\u0103": 4601,
  "\u2581Dor": 4602,
  "\u2581totally": 4603,
  "nn": 4604,
  "\u2581Plan": 4605,
  "\u2581durata": 4606,
  "\u2581Open": 4607,
  "\u2581Party": 4608,
  "\u2581Italia": 4609,
  "\u25812020": 4610,
  "\u2581ridic": 4611,
  "\u2581movi": 4612,
  "\u2581publication": 4613,
  "\u2581Mu": 4614,
  "\u2581Totu\u015f": 4615,
  "\u2581Isn": 4616,
  "\u2581rea": 4617,
  "\u2581prietene": 4618,
  "apoi": 4619,
  "\u2581reduction": 4620,
  "\u2581Ram": 4621,
  "\u2581sitting": 4622,
  "\u2581weather": 4623,
  "\u2581organisations": 4624,
  "\u2581oh": 4625,
  "\u2581plece": 4626,
  "\u2581crearea": 4627,
  "\u2581Emil": 4628,
  "\u2581quick": 4629,
  "\u2581Jurnalul": 4630,
  "\u00e2n": 4631,
  "\u2581wrote": 4632,
  "\u2581fresh": 4633,
  "\u2581boat": 4634,
  "uk": 4635,
  "\u2581advice": 4636,
  "\u2581rich": 4637,
  "\u2581Asia": 4638,
  "\u2581risks": 4639,
  "\u2581killing": 4640,
  "\u2581marry": 4641,
  "rilor": 4642,
  "\u2581datorit\u0103": 4643,
  "ila": 4644,
  "\u015fitul": 4645,
  "\u2581previous": 4646,
  "\u2581swear": 4647,
  "\u2581doza": 4648,
  "\u2581caused": 4649,
  "\u2581connection": 4650,
  "\u2581suna": 4651,
  "\u2581clasa": 4652,
  "pri": 4653,
  "ical": 4654,
  "\u2581riscul": 4655,
  "\u2581Try": 4656,
  "sur": 4657,
  "cut": 4658,
  "\u2581rata": 4659,
  "\u2581prime": 4660,
  "\u2581Rah": 4661,
  "\u2581pal": 4662,
  "\u2581Ty": 4663,
  "tter": 4664,
  "\u2581showed": 4665,
  "\u2581asociate": 4666,
  "\u2581Prezenta": 4667,
  "nia": 4668,
  "\u2581adopt": 4669,
  "pot": 4670,
  "\u2581Russian": 4671,
  "\u2581producers": 4672,
  "nat": 4673,
  "lis": 4674,
  "\u2581sear\u0103": 4675,
  "\u2581corespunz\u0103tor": 4676,
  "\u2581domni": 4677,
  "era": 4678,
  "\u2581Eli": 4679,
  "\u2581Authority": 4680,
  "\u2581forever": 4681,
  "\u2581legislative": 4682,
  "\u2581village": 4683,
  "\u2581necesit\u0103": 4684,
  "\u2581series": 4685,
  "\u2581men\u021bionat": 4686,
  "\u2581clothes": 4687,
  "\u0103\u015ftia": 4688,
  "ee": 4689,
  "\u2581influen": 4690,
  "bel": 4691,
  "\u2581Acordul": 4692,
  "ndy": 4693,
  "\u2581names": 4694,
  "\u2581culoare": 4695,
  "\u2581(2),": 4696,
  "\u25818.": 4697,
  "\u2581sexual": 4698,
  "\u2581users": 4699,
  "\u2581lucreaz\u0103": 4700,
  "inte\u015fti": 4701,
  "not": 4702,
  "\u2581net": 4703,
  "\u2581cultural": 4704,
  "\u2581voastre": 4705,
  "\u2581miliarde": 4706,
  "\u2581sport": 4707,
  "\u2581ambele": 4708,
  "\u2581glo": 4709,
  "\u2581Such": 4710,
  "\u2581providing": 4711,
  "\u2581vad": 4712,
  "\u2581correct": 4713,
  "\u2581degetele": 4714,
  "\u2581stick": 4715,
  "e\u021bi": 4716,
  "\u2581external": 4717,
  "\u2581commercial": 4718,
  "\u2581multiple": 4719,
  "\u2581obligations": 4720,
  "\u2581assets": 4721,
  "\u2581func\u021bie": 4722,
  "13": 4723,
  "\u2581EC": 4724,
  "\u2581substances": 4725,
  "\u2581element": 4726,
  "\u2581presupune": 4727,
  "ities": 4728,
  "\u2581Phil": 4729,
  "\u2581aruncat": 4730,
  "\u2581Guy": 4731,
  "ook": 4732,
  "back": 4733,
  "\u2581Simon": 4734,
  "\u2581excit": 4735,
  "\u2581broken": 4736,
  "\u2581lung\u0103": 4737,
  "\u2581spunem": 4738,
  "\u2581compliance": 4739,
  "\u2581Huh": 4740,
  "\u2581corpul": 4741,
  "02": 4742,
  "\u2581distan": 4743,
  "@": 4744,
  "\u25811999": 4745,
  "\u2581chem": 4746,
  "lice": 4747,
  "erhaps": 4748,
  "\u2581doubt": 4749,
  "\u2581<": 4750,
  "\u2581Ana": 4751,
  "\u2581centre": 4752,
  "res": 4753,
  "\u2581reading": 4754,
  "\u2581package": 4755,
  "\u2581vino": 4756,
  "\u2581Jen": 4757,
  "\u2581Sal": 4758,
  "\u2581ring": 4759,
  "del": 4760,
  "\u2581While": 4761,
  "ture": 4762,
  "\u2581surprise": 4763,
  "\u2581press": 4764,
  "\u2581regular": 4765,
  "\u2581parc\u0103": 4766,
  "\u2581produced": 4767,
  "\u2581400": 4768,
  "\u2581salva": 4769,
  "\u2581pia\u0163\u0103": 4770,
  "night": 4771,
  "\u2581named": 4772,
  "\u00b0": 4773,
  "\u2581permis": 4774,
  "\u2581list\u0103": 4775,
  "\u2581Ms": 4776,
  "\u2581contra": 4777,
  "Con": 4778,
  "-2": 4779,
  "\u2581observed": 4780,
  "\u2581comprimate": 4781,
  "\u2581partners": 4782,
  "\u2581tests": 4783,
  "cel": 4784,
  "\u2581domnul": 4785,
  "\u2581realize": 4786,
  "\u258142": 4787,
  "\u2581str": 4788,
  "\u2581companie": 4789,
  "\u2581cr": 4790,
  "\u2581dormi": 4791,
  "arling": 4792,
  "\u2581finished": 4793,
  "\u2581angajat": 4794,
  "\u2581offers": 4795,
  "\u2581[...]": 4796,
  "\u2581hundred": 4797,
  "\u2581community": 4798,
  "\u2581Ali": 4799,
  "ku": 4800,
  "proape": 4801,
  "\u2581gift": 4802,
  "\u2581lo": 4803,
  "\u2581ocupat": 4804,
  "\u2581Cea": 4805,
  "\u2581dress": 4806,
  "\u2581legat": 4807,
  "\u2581teme": 4808,
  "\u2581alternative": 4809,
  "\u2581arata": 4810,
  "\u2581interiorul": 4811,
  "\u2581lack": 4812,
  "\u2581consumption": 4813,
  "\u2581[1],": 4814,
  "\u2581investi": 4815,
  "\u2581noastr": 4816,
  "\u2581omoare": 4817,
  "AR": 4818,
  "\u2581ati": 4819,
  "\u2581Via": 4820,
  "\u2581Nor": 4821,
  "\u2581programului": 4822,
  "\u2581calculator": 4823,
  "\u2581elements": 4824,
  "\u2581Unit": 4825,
  "ect": 4826,
  "24": 4827,
  "\u2581THAT": 4828,
  "\u2581fruit": 4829,
  "\u2581presented": 4830,
  "\u2581ice": 4831,
  "\u2581proiecte": 4832,
  "\u2581servi": 4833,
  "\u2581none": 4834,
  "\u2581toat": 4835,
  "\u2581mijlocul": 4836,
  "70": 4837,
  "\u2581artist": 4838,
  "\u2581Act": 4839,
  "\u2581Mol": 4840,
  "\u2581identified": 4841,
  "\u2581plane": 4842,
  "\u2581electric": 4843,
  "red": 4844,
  "\u2581C\u00e2": 4845,
  "\u2581camp": 4846,
  "ford": 4847,
  "aga": 4848,
  "\u2581educa": 4849,
  "\u2581yesterday": 4850,
  "ville": 4851,
  "\u2581\u00eenceputul": 4852,
  "\u2581Thomas": 4853,
  "\u2581Niciodat\u0103": 4854,
  "\u2581twice": 4855,
  "\u2581sat": 4856,
  "\u2581methods": 4857,
  "\u2581sisteme": 4858,
  "Plus": 4859,
  "\u2581aur": 4860,
  "06": 4861,
  "\u2581achieve": 4862,
  "\u2581propunerea": 4863,
  "\u2581pregnant": 4864,
  "\u2581foame": 4865,
  "\u2581Show": 4866,
  "\u2581cells": 4867,
  "ena": 4868,
  "cent": 4869,
  "\u2581joint": 4870,
  "\u2581prezentei": 4871,
  "\u2581categoria": 4872,
  "\u2581Section": 4873,
  "AM": 4874,
  "\u2581standing": 4875,
  "\u2581spune\u0163i": 4876,
  "\u2581states": 4877,
  "\u2581student": 4878,
  "\u0103toare": 4879,
  "\u2581folos": 4880,
  "\u2581Day": 4881,
  "\u2581condus": 4882,
  "\u258143": 4883,
  "\u2581throughout": 4884,
  "\u2581excuse": 4885,
  "\u2581rolul": 4886,
  "\u2581Ur": 4887,
  "\u2581exposure": 4888,
  "0.000": 4889,
  "\u2581ince": 4890,
  "Pa": 4891,
  "\u2581doamn": 4892,
  "\u2581\u0163ara": 4893,
  "izarea": 4894,
  "\u2581London": 4895,
  "\u2581sight": 4896,
  "\u2581finan": 4897,
  "\u2581interests": 4898,
  "\u2581manager": 4899,
  "\u2581vorbe\u015fte": 4900,
  "\u2581amending": 4901,
  "\u2581cartea": 4902,
  "\u2581terrible": 4903,
  "\u2581Ele": 4904,
  "\u2581metri": 4905,
  "\u2581considerat": 4906,
  "\u2581infec": 4907,
  "\u2581ceilal\u0163i": 4908,
  "ization": 4909,
  "top": 4910,
  "\u2581proprie": 4911,
  "\u2581oricine": 4912,
  "\u2581Time": 4913,
  "\u2581Us": 4914,
  "\u25811:": 4915,
  "\u2581Corect": 4916,
  "\u2581proud": 4917,
  "\u2581ocean": 4918,
  "\u2581missed": 4919,
  "\u258150%": 4920,
  "definitely": 4921,
  "\u2581ultimele": 4922,
  "\u2581bought": 4923,
  "ravo": 4924,
  "\u2581opening": 4925,
  "rian": 4926,
  "\u2581birthday": 4927,
  "nar": 4928,
  "\u2581(1": 4929,
  "ben": 4930,
  "\u2581externe": 4931,
  "iste": 4932,
  "\u2581cod": 4933,
  "\u2581ON": 4934,
  "\u0103\u0163ile": 4935,
  "\u2581officer": 4936,
  "\u2581poten": 4937,
  "\u2581Sit": 4938,
  "\u2581r\u0103nit": 4939,
  "\u2581horse": 4940,
  "\u2581jobs": 4941,
  "ania": 4942,
  "\u2581thousand": 4943,
  "\u2581fighting": 4944,
  "\u2581wake": 4945,
  "\u2581described": 4946,
  "\u2581parc": 4947,
  "cip": 4948,
  "\u2581stock": 4949,
  "\u2581petrecut": 4950,
  "\u2581oar\u0103": 4951,
  "\u2581Last": 4952,
  "\u2581trai": 4953,
  "\u2581processing": 4954,
  "\u2581volume": 4955,
  "\u2581master": 4956,
  "par": 4957,
  "\u2581RE": 4958,
  "\u2581grea": 4959,
  "\u2581interesant": 4960,
  "\u2581trag": 4961,
  "\u2581overall": 4962,
  "\u2581Copii": 4963,
  "2/": 4964,
  "\u2581ru": 4965,
  "\u2581via": 4966,
  "berg": 4967,
  "\u2581Calm": 4968,
  "\u2581Read": 4969,
  "\u2581oricum": 4970,
  "\u2581Everybody": 4971,
  "\u2581forms": 4972,
  "\u2581Chapter": 4973,
  "ts": 4974,
  "\u2581negru": 4975,
  "\u2581meat": 4976,
  "\u2581\u00eentreprinderi": 4977,
  "\u2581invitat": 4978,
  ".000": 4979,
  "\u2581birth": 4980,
  "\u2581accesul": 4981,
  "stra": 4982,
  "\u2581folosesc": 4983,
  "\u2581sustainable": 4984,
  "\u25819.": 4985,
  "\u2581victim": 4986,
  "\u2581Trei": 4987,
  "\u2581parcursul": 4988,
  "ast": 4989,
  "\u2581elementele": 4990,
  "\u2581operating": 4991,
  "\u2581Post": 4992,
  "\u2581caut\u0103": 4993,
  "ome": 4994,
  "ble": 4995,
  "stairs": 4996,
  "\u2581statement": 4997,
  "gand": 4998,
  "\u2581Zi": 4999,
  "\u2581avizul": 5000,
  "\u2581ideal": 5001,
  "int": 5002,
  "\u2581sold": 5003,
  "60": 5004,
  "\u2581expert": 5005,
  "\u2581song": 5006,
  "hr": 5007,
  "\u2581cre\u0219tere": 5008,
  "\u2581cealalt\u0103": 5009,
  "\u2581Gen": 5010,
  "\u2581Vrem": 5011,
  "\u2581domeniu": 5012,
  "\u2581customs": 5013,
  "\u2581lasa": 5014,
  "\u2581Has": 5015,
  "\u2581interior": 5016,
  "\u2581sales": 5017,
  "\u2581furi": 5018,
  "\u2581jocul": 5019,
  "\u2581mintea": 5020,
  "ray": 5021,
  "\u2581bull": 5022,
  "\u2581witness": 5023,
  "tes": 5024,
  "\u2581opened": 5025,
  "\u2581politice": 5026,
  "SE": 5027,
  "\u2581team\u0103": 5028,
  "\u2581p\u0103r": 5029,
  "crim\u0103": 5030,
  "sis": 5031,
  "\u2581Human": 5032,
  "\u2581bur": 5033,
  "\u2581failure": 5034,
  "\u2581efforts": 5035,
  "\u2581\u015ftia": 5036,
  "\u2581ascuns": 5037,
  "\u2581neither": 5038,
  "\u2581decizii": 5039,
  "\u2581promis": 5040,
  "\u2581Welcome": 5041,
  "\u2581echip\u0103": 5042,
  "ep": 5043,
  "\u2581avocat": 5044,
  "\u2581Development": 5045,
  "\u2581favour": 5046,
  "ugh": 5047,
  "\u2581tai": 5048,
  "\u2581strange": 5049,
  "\u2581HAS": 5050,
  "\u2581simply": 5051,
  "\u2581north": 5052,
  "\u2581heading": 5053,
  "\u2581path": 5054,
  "credibil": 5055,
  "\u2581allows": 5056,
  "\u2581scos": 5057,
  "\u2581s\u0103pt\u0103m\u00e2na": 5058,
  "\u2581Vo": 5059,
  "\u2581Fred": 5060,
  "\u2581determine": 5061,
  "4,": 5062,
  "\u2581plic": 5063,
  "\u2581arm\u0103": 5064,
  "\u2581Airport": 5065,
  "\u2581normelor": 5066,
  "cal": 5067,
  "\u2581former": 5068,
  "\u2581Italy": 5069,
  "\u2581spunea": 5070,
  "7/": 5071,
  "\u2581Pal": 5072,
  "\u2581Carol": 5073,
  "\u2581(6)": 5074,
  "\u2581esen": 5075,
  "\u2581hide": 5076,
  "\u2581units": 5077,
  "\u2581SE": 5078,
  "\u2581programe": 5079,
  "\u2581bathroom": 5080,
  "\u2581agreements": 5081,
  "\u2581reduced": 5082,
  "\u2581gol": 5083,
  "\u2581umane": 5084,
  "\u2581fool": 5085,
  "\u2581apartament": 5086,
  "\u258144": 5087,
  "\u2581al\u0163ii": 5088,
  "\u2581slow": 5089,
  "\u015ftigat": 5090,
  "\u2581freedom": 5091,
  "\u2581drugs": 5092,
  "\u2581fra": 5093,
  "\u2581lived": 5094,
  "\u2581offered": 5095,
  "itati": 5096,
  "\u2581damage": 5097,
  "\u2581favoarea": 5098,
  "\u2581closed": 5099,
  "\u2581departamentul": 5100,
  "\u2581uniform": 5101,
  "ik": 5102,
  "\u2581location": 5103,
  "\u2581\u00een\u0163elege": 5104,
  "til": 5105,
  "\u2581lunch": 5106,
  "\u2581Mil": 5107,
  "\u25812:": 5108,
  "\u2581b\u0103tr\u00e2n": 5109,
  "cho": 5110,
  "\u2581uz": 5111,
  "\u2581sad": 5112,
  "\u2581applications": 5113,
  "\u2581rock": 5114,
  "dica": 5115,
  "\u2581led": 5116,
  "\u2581funding": 5117,
  "nti": 5118,
  "\u2581superior": 5119,
  "cker": 5120,
  "\u2581arm": 5121,
  "\u2581truck": 5122,
  "\u2581\u015fti": 5123,
  "\u2581contribution": 5124,
  "uz": 5125,
  "\u2581planning": 5126,
  "\u2581miles": 5127,
  "\u2581\u015ftiam": 5128,
  "\u2581ace\u015fti": 5129,
  "\u2581bio": 5130,
  "\u2581mobile": 5131,
  "\u2581Romani": 5132,
  "\u2581bear": 5133,
  "\u2581verde": 5134,
  "\u2581domnilor": 5135,
  "\u2581\u021b\u0103rile": 5136,
  "\u2581earlier": 5137,
  "\u2581Ber": 5138,
  "\u2581rupt": 5139,
  "\u2581scope": 5140,
  "\u2581\u00ceN": 5141,
  "\u2581serve": 5142,
  "\u2581grab": 5143,
  "\u2581decat": 5144,
  "\u2581race": 5145,
  "\u2581exist": 5146,
  "dul": 5147,
  "\u2581Total": 5148,
  "45": 5149,
  "3/": 5150,
  "\u2581col": 5151,
  "\u2581release": 5152,
  "loc": 5153,
  "\u2581Fund": 5154,
  "\u2581fa": 5155,
  "\u2581wearing": 5156,
  "\u2581reactions": 5157,
  "\u2581began": 5158,
  "\u2581bas": 5159,
  "\u2581vot": 5160,
  "sul": 5161,
  "nic\u0103": 5162,
  "\u2581passed": 5163,
  "\u2581ability": 5164,
  "\u2581explica": 5165,
  "\u2581asigurarea": 5166,
  "\u2581informat": 5167,
  "\u2581curent": 5168,
  "\u2581activit\u0103\u021bi": 5169,
  "\u2581wind": 5170,
  "\u258137": 5171,
  "\u2581laws": 5172,
  "\u2581establish": 5173,
  "\u2581importance": 5174,
  "\u2581Vic": 5175,
  "\u2581behalf": 5176,
  "\u2581lumin\u0103": 5177,
  "\u2581wide": 5178,
  "\u2581relation": 5179,
  "\u2581forme": 5180,
  "u\u0163\u0103": 5181,
  "\u2581pl\u0103tit": 5182,
  "\u2581na\u021bional": 5183,
  "\u2581aspect": 5184,
  "\u2581anii": 5185,
  "\u2581arrest": 5186,
  "\u2581begin": 5187,
  "\u2581institution": 5188,
  "\u2581termina": 5189,
  "ium": 5190,
  "\u2581magi": 5191,
  "\u2581balance": 5192,
  "\u2581efecte": 5193,
  "\u2581aware": 5194,
  "\u2581suppose": 5195,
  "\u2581huge": 5196,
  "6,": 5197,
  "\u2581\u00eentreg": 5198,
  "\u2581promote": 5199,
  "\u2581zilele": 5200,
  "\u2581grow": 5201,
  "\u2581pleasure": 5202,
  "ade": 5203,
  "\u2581affect": 5204,
  "\u2581acting": 5205,
  "\u2581regret": 5206,
  "\u2581accounts": 5207,
  "\u2581bother": 5208,
  "dan": 5209,
  "ET": 5210,
  "CO": 5211,
  "\u2581setting": 5212,
  "\u2581Agen": 5213,
  "\u2581gust": 5214,
  "\u2581august": 5215,
  "\u2581c\u0103ci": 5216,
  "ella": 5217,
  "\u2581DO": 5218,
  "\u2581infrastructure": 5219,
  "\u2581oral": 5220,
  "\u2581teren": 5221,
  "ua": 5222,
  "\u2581respectiv\u0103": 5223,
  "\u2581adult": 5224,
  "\u2581Pur": 5225,
  "m\u00e2n": 5226,
  "\u2581Street": 5227,
  "\u2581Ham": 5228,
  "\u2581Oil": 5229,
  "igh": 5230,
  "\u2581pictures": 5231,
  "\u2581pun\u0103": 5232,
  "\u2581percent": 5233,
  "rd": 5234,
  "\u2581enable": 5235,
  "\u2581vinde": 5236,
  "\u2581learned": 5237,
  "\u2581adecvate": 5238,
  "nici": 5239,
  "\u2581Reg": 5240,
  "\u2581starea": 5241,
  "\u2581helping": 5242,
  "rit": 5243,
  "ado": 5244,
  "get": 5245,
  "\u2581subparagraph": 5246,
  "\u2581celui": 5247,
  "\u2581Directivei": 5248,
  "\u2581alfa": 5249,
  "\u2581detailed": 5250,
  "\u2581raise": 5251,
  "ico": 5252,
  "\u2581punctele": 5253,
  "\u2581perhaps": 5254,
  "\u2581b\u0103ut": 5255,
  "\u2581taste": 5256,
  "\u2581Marea": 5257,
  "\u2581ladi": 5258,
  "\u2581Jean": 5259,
  "\u2581SUA": 5260,
  "\u2581ja": 5261,
  "\u2581device": 5262,
  "\u2581Kate": 5263,
  "\u2581tea": 5264,
  "\u2581Walter": 5265,
  "f\u0103": 5266,
  "ving": 5267,
  "\u2581Frate": 5268,
  "\u2581urm\u0103toare": 5269,
  "t\u00e2mp": 5270,
  "\u2581fly": 5271,
  "\u2581agen": 5272,
  "RO": 5273,
  "\u2581joac\u0103": 5274,
  "\u2581clinice": 5275,
  "\u00f6": 5276,
  "\u2581poker": 5277,
  "\u2581Ann": 5278,
  "TA": 5279,
  "\u2581p\u0103rin\u0163ii": 5280,
  "\u2581currently": 5281,
  "\u2581Gri": 5282,
  "\u2581Julia": 5283,
  "-1": 5284,
  "\u2581discuss": 5285,
  "\u2581u\u0219or": 5286,
  "\u2581valori": 5287,
  "\u2581dry": 5288,
  "\u2581arrangements": 5289,
  "\u2581curat": 5290,
  "\u2581\u00eencep\u00e2nd": 5291,
  "\u2581Mie": 5292,
  "\u2581Sh": 5293,
  "Opre\u015fte": 5294,
  "\u2581\u021bar\u0103": 5295,
  "\u2581reporting": 5296,
  "kg": 5297,
  "onnie": 5298,
  "\u2581frecvente": 5299,
  "\u2581regulatory": 5300,
  "\u2581fotografii": 5301,
  "\u2581urm\u0103toarea": 5302,
  "ave": 5303,
  "sor": 5304,
  "ther": 5305,
  "\u2581investi\u021bii": 5306,
  "\u2581spot": 5307,
  "\u2581powers": 5308,
  "ete": 5309,
  "\u2581refer": 5310,
  "\u2581includes": 5311,
  "\u2581presence": 5312,
  "\u2581battle": 5313,
  "\u2581c\u0103zut": 5314,
  "\u2581possibility": 5315,
  ":30": 5316,
  "nything": 5317,
  "ping": 5318,
  "\u2581screw": 5319,
  "\u2581declara": 5320,
  "\u2581maxim": 5321,
  "\u2581c\u0103ror": 5322,
  "\u2581construction": 5323,
  "\u258165": 5324,
  "\u2581south": 5325,
  "\u2581tipuri": 5326,
  "\u2581eficient": 5327,
  "Pro": 5328,
  "\u2581signed": 5329,
  "\u2581Rec": 5330,
  "\u2581Mul\u021b": 5331,
  "\u2581Mere": 5332,
  "\u2581situat": 5333,
  "oasa": 5334,
  "\u2581efficiency": 5335,
  "nge": 5336,
  "\u2581Bal": 5337,
  "board": 5338,
  "\u2581cump\u0103rat": 5339,
  "\u2581procedur\u0103": 5340,
  "\u2581operators": 5341,
  "\u2581fugi": 5342,
  "\u2581Done": 5343,
  "\u2581NU": 5344,
  "\u2581lawyer": 5345,
  "\u2581\u0163inut": 5346,
  "\u2581Long": 5347,
  "6/": 5348,
  "\u2581societ": 5349,
  "\u2581doze": 5350,
  "\u2581100%": 5351,
  "\u2581evaluation": 5352,
  "rac": 5353,
  "\u2581cuv\u00e2ntul": 5354,
  "\u2581Vorbe": 5355,
  "\u2581pleac\u0103": 5356,
  "\u2581obtained": 5357,
  "\u2581aminti": 5358,
  "\u2581labour": 5359,
  "\u2581reached": 5360,
  "\u2581bate": 5361,
  "\u2581grade": 5362,
  "\u2581Sy": 5363,
  "\u2581maxim\u0103": 5364,
  "\u2581organisation": 5365,
  "\u2581stabilirea": 5366,
  "Am": 5367,
  "\u2581Far": 5368,
  "\u2581tree": 5369,
  "sel": 5370,
  "oni": 5371,
  "\u2581Common": 5372,
  "\u2581emergency": 5373,
  "\u2581Table": 5374,
  "treprinderilor": 5375,
  "\u2581inainte": 5376,
  "\u2581Comp": 5377,
  "\u2581students": 5378,
  "\u015ftii": 5379,
  "\u2581Washington": 5380,
  "\u0163ul": 5381,
  "\u2581Colonel": 5382,
  "ur\u0103": 5383,
  "23": 5384,
  "\u2581Master": 5385,
  "\u2581Oo": 5386,
  "nuit": 5387,
  "p\u0163i": 5388,
  "n\u0163": 5389,
  "itor": 5390,
  "\u2581totdeauna": 5391,
  "\u2581clinic": 5392,
  "\u2581industria": 5393,
  "\u2581books": 5394,
  "\u2581pl\u0103ti": 5395,
  "\u2581hero": 5396,
  "\u2581ourselves": 5397,
  "\u2581emissions": 5398,
  "\u2581Although": 5399,
  "\u2581Clark": 5400,
  "\u2581climate": 5401,
  "gon": 5402,
  "\u2581cal": 5403,
  "\u2581otherwise": 5404,
  "\u2581viitorul": 5405,
  "\u2581Hal": 5406,
  "\u2581r\u0103m\u00e2n": 5407,
  "\u2581suck": 5408,
  "ig": 5409,
  "\u2581ME": 5410,
  "\u25817,": 5411,
  "\u2581\u00eenalt": 5412,
  "\u2581politicii": 5413,
  "\u2581helped": 5414,
  "\u2581sake": 5415,
  "\u2581dovezi": 5416,
  "\u2581gre\u015feal": 5417,
  "cade": 5418,
  "\u2581Cand": 5419,
  "\u2581storage": 5420,
  "\u2581groaz": 5421,
  "\u2581Pas": 5422,
  "\u2581obliga": 5423,
  "\u2581Wall": 5424,
  "\u2581Security": 5425,
  "\u2581mention": 5426,
  "\u2581tratat": 5427,
  "\u2581cadru": 5428,
  "art": 5429,
  "AD": 5430,
  "\u2581Fiul": 5431,
  "\u2581leg\u0103tura": 5432,
  "\u2581grija": 5433,
  "\u2581cet\u0103\u0163eni": 5434,
  "\u2581comply": 5435,
  "\u2581medicul": 5436,
  "\u2581politici": 5437,
  "\u2581Chinese": 5438,
  "\u2581tough": 5439,
  "\u2581ocupa": 5440,
  "\u2581Sometimes": 5441,
  "wood": 5442,
  "\u2581lege": 5443,
  "anny": 5444,
  "\u2581army": 5445,
  "\u2581draw": 5446,
  "\u2581trial": 5447,
  "\u2581Jes": 5448,
  "\u2581voce": 5449,
  "\u2581match": 5450,
  "\u2581scientific": 5451,
  "\u2581Spa": 5452,
  "\u2581strength": 5453,
  "\u2581reducere": 5454,
  "\u2581Wil": 5455,
  "\u2581th": 5456,
  "\u2581utiliz\u0103rii": 5457,
  "ces": 5458,
  "\u2581Pare": 5459,
  "\u25812001": 5460,
  "\u2581honor": 5461,
  "\u2581developing": 5462,
  "\u2581century": 5463,
  "oth": 5464,
  "\u2581asociere": 5465,
  "\u2581durere": 5466,
  "\u25812009,": 5467,
  "\u2581Pleac\u0103": 5468,
  "\u2581orders": 5469,
  "\u2581vremea": 5470,
  "\u2581tat\u0103lui": 5471,
  "ram": 5472,
  "\u2581magic": 5473,
  "\u2581anumitor": 5474,
  "\u2581Hit": 5475,
  "\u015ftig": 5476,
  "\u2581c\u0103l\u0103torie": 5477,
  "\u2581NO": 5478,
  "\u2581Use": 5479,
  "\u2581ascunde": 5480,
  "itch": 5481,
  "\u2581uimit": 5482,
  "\u2581clip": 5483,
  "\u2581Still": 5484,
  "u\u015fcat": 5485,
  "UN": 5486,
  "Mo": 5487,
  "\u2581William": 5488,
  "\u2581innovation": 5489,
  "\u2581Comunit": 5490,
  "\u258110%": 5491,
  "\u258184": 5492,
  "o\u015fi": 5493,
  "\u2581mark": 5494,
  "\u2581politic": 5495,
  "\u0163iva": 5496,
  "\u2581nord": 5497,
  "\u2581disc": 5498,
  "\u2581registered": 5499,
  "\u2581a\u015ftepta": 5500,
  "\u2581da\u0163i": 5501,
  "nte": 5502,
  "\u2581Mont": 5503,
  "\u2581Deschide": 5504,
  "\u2581border": 5505,
  "\u258112.": 5506,
  "\u2581structure": 5507,
  "\u2581dispozi\u021biile": 5508,
  "z\u0103": 5509,
  "\u2581cook": 5510,
  "arul": 5511,
  "win": 5512,
  "\u2581indicate": 5513,
  "\u2581lipsa": 5514,
  "\u2581fonduri": 5515,
  "ucker": 5516,
  "\u2581sprijinul": 5517,
  "\u2581lock": 5518,
  "mber": 5519,
  "\u2581adoptate": 5520,
  "\u2581b\u0103": 5521,
  "\u2581movement": 5522,
  "rad": 5523,
  "\u2581treia": 5524,
  "\u2581via\u021ba": 5525,
  "\u2581deasupra": 5526,
  "\u2581expenditure": 5527,
  "\u2581ofi": 5528,
  "\u2581detalii": 5529,
  "\u2581B\u0103": 5530,
  "\u2581Vine": 5531,
  "org": 5532,
  "\u2581prev\u0103zut": 5533,
  "\u2581iubi": 5534,
  "\u2581lemn": 5535,
  "hole": 5536,
  "\u2581heat": 5537,
  "\u2581cre\u015fterea": 5538,
  "\u2581destroy": 5539,
  "\u25812010,": 5540,
  "\u2581produsului": 5541,
  "\u2581tehnic": 5542,
  "\u2581Date": 5543,
  "\u25818,": 5544,
  "\u2581cau\u0163i": 5545,
  "\u2581clip\u0103": 5546,
  "\u2581ADOPTE": 5547,
  "\u2581Deoarece": 5548,
  "5/": 5549,
  "\u2581nuclear": 5550,
  "\u2581regulation": 5551,
  "\u2581forgot": 5552,
  "\u2581trick": 5553,
  "\u2581purta": 5554,
  "\u258146": 5555,
  "\u2581fundamental": 5556,
  "\u2581meci": 5557,
  "\u2581general\u0103": 5558,
  "\u2581obiectivele": 5559,
  "\u2581Public": 5560,
  "\u2581evenimente": 5561,
  "\u2581salv": 5562,
  "\u2581motivul": 5563,
  "str": 5564,
  "\u2581interna\u021bionale": 5565,
  "\u2581teach": 5566,
  "\u2581exercise": 5567,
  "\u2581indicated": 5568,
  "\u2581Fri": 5569,
  "\u2581Rome": 5570,
  "\u2581medicines": 5571,
  "sk": 5572,
  "tare": 5573,
  "\u2581collection": 5574,
  "\u0163inere": 5575,
  "\u2581Mur": 5576,
  "\u2581At\u00e2t": 5577,
  "Ma": 5578,
  "\u2581ADOPT": 5579,
  "\u2581stars": 5580,
  "\u25811000": 5581,
  "\u2581administrare": 5582,
  "\u2581keeping": 5583,
  "\u2581files": 5584,
  "\u2581sala": 5585,
  "27": 5586,
  "\u2581Another": 5587,
  "uch": 5588,
  "\u2581Roma": 5589,
  "\u2581gur\u0103": 5590,
  "\u2581verifica": 5591,
  "\u2581financing": 5592,
  "\u2581authorised": 5593,
  "serv": 5594,
  "\u2581cuvintele": 5595,
  "\u2581,,": 5596,
  "\u2581zero": 5597,
  "\u2581semnificativ": 5598,
  "\u2581Num\u0103rul": 5599,
  "\u2581Ziua": 5600,
  "\u2581binding": 5601,
  "\u2581popula": 5602,
  "ventur": 5603,
  "rate": 5604,
  "\u2581existat": 5605,
  "fu": 5606,
  "\u2581kick": 5607,
  "\u2581Canada": 5608,
  "\u2581asistent": 5609,
  "\u258155": 5610,
  "\u2581Tro": 5611,
  "\u2581laying": 5612,
  "\u2581impossible": 5613,
  "\u2581fugit": 5614,
  "\u2581Drag": 5615,
  "\u2581walking": 5616,
  "sus": 5617,
  "\u2581cap\u0103t": 5618,
  "\u2581owe": 5619,
  "\u2581recomand\u0103": 5620,
  "\u2581Kim": 5621,
  "\u2581flight": 5622,
  "\u2581\u00eendr\u0103g": 5623,
  "\u2581park": 5624,
  "\u2581East": 5625,
  "\u0163elor": 5626,
  "\u2581Anti": 5627,
  "\u2581Av\u00e2nd": 5628,
  "\u2581vest": 5629,
  "plat": 5630,
  "\u2581juridice": 5631,
  "\u2581experiment": 5632,
  "\u2581cuno\u015fti": 5633,
  "\u2581false": 5634,
  "ox": 5635,
  "\u2581sin": 5636,
  "\u2581Merc": 5637,
  "\u2581summer": 5638,
  "\u2581Life": 5639,
  "tea": 5640,
  "tati": 5641,
  "\u2581perioadei": 5642,
  "\u2581faptului": 5643,
  "ampla": 5644,
  "\u2581incluse": 5645,
  "\u2581description": 5646,
  "unilor": 5647,
  "\u2581solid": 5648,
  "\u2581Brad": 5649,
  "\u2581p\u0103stra": 5650,
  "\u2581mal": 5651,
  "\u2581digital": 5652,
  "cea": 5653,
  "\u2581Code": 5654,
  "\u2581solicit\u0103": 5655,
  "\u2581thou": 5656,
  "san": 5657,
  "\u2581cunoa\u015fte": 5658,
  "\u2581ui\u0163i": 5659,
  "ese": 5660,
  "\u2581Cer": 5661,
  "ress": 5662,
  "\u2581bastard": 5663,
  "\u2581vorbeasc\u0103": 5664,
  "\u2581ye": 5665,
  "\u2581reu": 5666,
  "\u2581preferat": 5667,
  "\u2581steps": 5668,
  "\u2581asigurare": 5669,
  "ank": 5670,
  "ml": 5671,
  "gue": 5672,
  "\u2581c\u0103uta": 5673,
  "21": 5674,
  "\u2581temperature": 5675,
  "\u2581kitchen": 5676,
  "pine": 5677,
  "\u2581includ": 5678,
  "\u2581comunitare": 5679,
  "\u2581citi": 5680,
  "\u258147": 5681,
  "\u2581Anyway": 5682,
  "\u2581Victor": 5683,
  "\u2581commune": 5684,
  "sto": 5685,
  "\u2581Fran\u021ba": 5686,
  "\u2581naturale": 5687,
  "\u2581fizice": 5688,
  "\u2581termin\u0103": 5689,
  "far": 5690,
  "\u2581modific\u0103ri": 5691,
  "\u2581signs": 5692,
  "\u2581sc\u0103zut": 5693,
  "\u2581\"\"": 5694,
  "\u2581Weather": 5695,
  "jun": 5696,
  "\u2581Ter": 5697,
  "\u2581muta": 5698,
  "head": 5699,
  "\u2581Curtea": 5700,
  "\u2581regions": 5701,
  "\u25813:": 5702,
  "law": 5703,
  "\u2581machines": 5704,
  "\u2581draga": 5705,
  "\u2581tradi": 5706,
  "ef": 5707,
  "\u2581filme": 5708,
  "\u2581conflict": 5709,
  "\u2581afec": 5710,
  "\u2581remains": 5711,
  "\u2581cel\u0103lalt": 5712,
  "\u2581fuel": 5713,
  "\u2581distr": 5714,
  "\u2581worst": 5715,
  "\u2581Kat": 5716,
  "\u2581Satan": 5717,
  "\u2581Sco": 5718,
  "\u2581fum": 5719,
  "mine": 5720,
  "\u2581produc\u021bie": 5721,
  "xi": 5722,
  "\u2581fa\u021ba": 5723,
  "\u2581proceduri": 5724,
  "\u2581larg": 5725,
  "\u2581Little": 5726,
  "\u2581gaz": 5727,
  "\u2581stele": 5728,
  "\u2581Fu": 5729,
  "\u2581Arat\u0103": 5730,
  "\u2581bord": 5731,
  "\u2581concern": 5732,
  "\u2581nine": 5733,
  "\u2581Ly": 5734,
  "\u2581image": 5735,
  "test": 5736,
  "\u2581Bro": 5737,
  "\u2581Intr": 5738,
  "\u2581somn": 5739,
  "lov": 5740,
  "\u2581Austria": 5741,
  "\u2581ultimii": 5742,
  "\u2581bus": 5743,
  "rup": 5744,
  "\u2581placed": 5745,
  "\u2581contracts": 5746,
  "\u2581imagina": 5747,
  "\u2581Informa": 5748,
  "tei": 5749,
  "\u2581Holy": 5750,
  "\u2581profe": 5751,
  "\u2581disponibil": 5752,
  "26": 5753,
  "fil": 5754,
  "\u2581option": 5755,
  "\u2581honest": 5756,
  "\u2581science": 5757,
  "\u2581lines": 5758,
  "die": 5759,
  "\u2581appear": 5760,
  "\u2581ocazia": 5761,
  "\u2581Pr": 5762,
  "\u2581onoare": 5763,
  "\u2581ruin": 5764,
  "\u2581imposibil": 5765,
  "\u2581A\u0219a": 5766,
  "\u2581a\u0219": 5767,
  "\u2581practical": 5768,
  "\u2581poze": 5769,
  "\u2581vessels": 5770,
  "\u2581veche": 5771,
  "\u2581Stan": 5772,
  "\u2581distrus": 5773,
  "\u2581Dun": 5774,
  "\u2581aeroport": 5775,
  "\u2581Way": 5776,
  "\u2581C\u0103pitan": 5777,
  "\u2581Qui": 5778,
  "\u2581manufacturer": 5779,
  "\u2581mul\u021bum": 5780,
  "Nick": 5781,
  "aca": 5782,
  "\u2581brothers": 5783,
  "ora": 5784,
  "\u2581puternic\u0103": 5785,
  "boy": 5786,
  "\u2581establishment": 5787,
  "\u2581rezultat": 5788,
  "\u258156": 5789,
  "\u2581demand": 5790,
  "\u2581tr\u0103iesc": 5791,
  "\u2581highly": 5792,
  "tule": 5793,
  "\u258120%": 5794,
  "\u2581arms": 5795,
  "\u2581Domni": 5796,
  "\u2581angry": 5797,
  "\u2581Pete": 5798,
  "cre": 5799,
  "dio": 5800,
  "eta": 5801,
  "\u2581Law": 5802,
  "\u2581Perfect": 5803,
  "\u2581Under": 5804,
  "\u2581lay": 5805,
  "\u2581lu": 5806,
  "nce": 5807,
  "\u2581Functioning": 5808,
  "grad": 5809,
  "\u2581Bas": 5810,
  "\u2581Rock": 5811,
  "\u2581ur\u00e2t": 5812,
  "\u2581scot": 5813,
  "\u2581bottle": 5814,
  "mie": 5815,
  "\u2581membrii": 5816,
  "u\u015fc\u0103": 5817,
  "cap": 5818,
  "\u2581ma\u015fini": 5819,
  "\u2581promised": 5820,
  "\u2581requires": 5821,
  "5,": 5822,
  "\u2581indic\u0103": 5823,
  "\u2581\u0218tiu": 5824,
  "\u2581rain": 5825,
  "\u2581procedurile": 5826,
  "\u2581adoption": 5827,
  "\u2581mul\u0163ime": 5828,
  "\u2581success": 5829,
  "\u2581Fire": 5830,
  "lit": 5831,
  "\u2581m\u00e2n": 5832,
  "\u2581tend": 5833,
  "\u2581tineri": 5834,
  "\u2581anual": 5835,
  "\u2581remind": 5836,
  "\u2581fundul": 5837,
  "torilor": 5838,
  "\u2581concert": 5839,
  "non": 5840,
  "\u2581Rick": 5841,
  "\u2581protec\u021bia": 5842,
  "\u2581atingere": 5843,
  "\u2581obiective": 5844,
  "07": 5845,
  "\u2581article": 5846,
  "\u2581cina": 5847,
  "\u2581Jur": 5848,
  "\u2581sources": 5849,
  "\u2581furnizate": 5850,
  "hal": 5851,
  "\u2581detectiv": 5852,
  "\u2581obosit": 5853,
  "tina": 5854,
  "\u2581absolut": 5855,
  "\u2581fit": 5856,
  "ken": 5857,
  "nica": 5858,
  "\u2581plin\u0103": 5859,
  "\u2581extension": 5860,
  "\u2581tur": 5861,
  "\u2581articolele": 5862,
  "dna": 5863,
  "\u2581activ\u0103": 5864,
  "\u2581Convention": 5865,
  "\u2581schimb\u0103": 5866,
  "\u2581adecvat": 5867,
  "\u2581Role": 5868,
  "\u2581afacere": 5869,
  "\u2581Unii": 5870,
  "\u2581hearing": 5871,
  "\u2581achieved": 5872,
  "\u2581Hill": 5873,
  "\u2581Pop": 5874,
  "\u2581Republicii": 5875,
  "\u2581ofer": 5876,
  "gel": 5877,
  "\u2581evita": 5878,
  "\u2581skills": 5879,
  "\u2581div": 5880,
  "\u2581consec": 5881,
  "LL": 5882,
  "ery": 5883,
  "\u2581entered": 5884,
  "\u2581nebunie": 5885,
  "\u2581poart\u0103": 5886,
  "ady": 5887,
  "\u2581civile": 5888,
  "\u2581creation": 5889,
  "\u2581cops": 5890,
  "\u2581click": 5891,
  "mur": 5892,
  "\u2581Nick": 5893,
  "\u2581obiectiv": 5894,
  "aba": 5895,
  "\u2581factors": 5896,
  "\u2581Ulei": 5897,
  "\u2581t\u00e2n\u0103r": 5898,
  "\u2581discuta": 5899,
  "led": 5900,
  "\u2581grupul": 5901,
  "\u2581ora\u0219": 5902,
  "c\u00e2nta": 5903,
  "\u2581instituire": 5904,
  "\u2581stabili": 5905,
  "lair": 5906,
  "\u258111.": 5907,
  "\u2581cazare": 5908,
  "\u2581LORD": 5909,
  "olly": 5910,
  "\u2581absolutely": 5911,
  "\u2581cre\u0219terea": 5912,
  "\u2581sistemele": 5913,
  "\u2581iron": 5914,
  "\u2581aferente": 5915,
  "\u2581Lieutenant": 5916,
  "in\u0163\u0103": 5917,
  "\u2581adaug\u0103": 5918,
  "\u2581college": 5919,
  "ped": 5920,
  "\u2581flat": 5921,
  "\u2581payments": 5922,
  "\u00d3": 5923,
  "\u2581Bre": 5924,
  "\u2581unic\u0103": 5925,
  "\u00ee": 5926,
  "\u2581concluded": 5927,
  "Co": 5928,
  "\u2581recently": 5929,
  "\u2581intrare": 5930,
  "\u2581sufficient": 5931,
  "spect": 5932,
  "\u2581representative": 5933,
  "\u2581burn": 5934,
  "\u2581dificil": 5935,
  "\u2581hot\u0103r\u00e2t": 5936,
  "\u2581folosite": 5937,
  "\u2581jail": 5938,
  "03": 5939,
  "\u2581Clar": 5940,
  "\u2581consumers": 5941,
  "\u2581powerful": 5942,
  "\u2581disorders": 5943,
  "\u2581legisla": 5944,
  "sco": 5945,
  "\u2581Tru": 5946,
  "\u2581natura": 5947,
  "\u2581afternoon": 5948,
  "\u2581spectacol": 5949,
  "dra": 5950,
  "form": 5951,
  "\u2581draft": 5952,
  "\u2581uman\u0103": 5953,
  "\u2581Want": 5954,
  "\u2581participation": 5955,
  "\u2581Hall": 5956,
  "kov": 5957,
  "\u2581shop": 5958,
  "\u2581porc": 5959,
  "iff": 5960,
  "\u2581procedurii": 5961,
  "\u258141": 5962,
  "\u2581\u00b0": 5963,
  "\u2581CON": 5964,
  "\u2581contribuie": 5965,
  "28": 5966,
  "ston": 5967,
  "\u2581evolu": 5968,
  "erul": 5969,
  "\u2581memory": 5970,
  "nei": 5971,
  "\u2581link": 5972,
  "\u2581apropie": 5973,
  "\u2581Dou\u0103": 5974,
  "ologie": 5975,
  "\u2581consecin\u021b\u0103": 5976,
  "\u2581proiectul": 5977,
  "\u2581band": 5978,
  "\u2581membri": 5979,
  "\u2581strategic": 5980,
  "\u2581sute": 5981,
  "\u2581deosebit": 5982,
  "\u2581domestic": 5983,
  "\u2581practices": 5984,
  "\u2581aim": 5985,
  "\u2581deplin": 5986,
  "\u2581players": 5987,
  "\u2581Club": 5988,
  "\u2581escape": 5989,
  "\u2581push": 5990,
  "\u2581drunk": 5991,
  "\u2581Pai": 5992,
  "\u2581thy": 5993,
  "sartan": 5994,
  "\u2581stabilit\u0103": 5995,
  "\u2581norme": 5996,
  "\u2581analiz\u0103": 5997,
  "\u2581initial": 5998,
  "\u2581bere": 5999,
  "\u2581distribution": 6000,
  "\u2581valorii": 6001,
  "\u2581asculta": 6002,
  "\u25812011,": 6003,
  "\u2581\u00eencercare": 6004,
  "\u2581traffic": 6005,
  "\u2581justice": 6006,
  "\u2581Merg": 6007,
  "\u2581fericit\u0103": 6008,
  "\u2581credeam": 6009,
  "\u2581magazine": 6010,
  "\u2581debt": 6011,
  "\u2581plants": 6012,
  "\u2581Bucharest": 6013,
  "\u2581aveau": 6014,
  "\u2581Ran": 6015,
  "list": 6016,
  "lat": 6017,
  "\u2581merit\u0103": 6018,
  "\u2581picioarele": 6019,
  "\u2581Avea": 6020,
  "\u2581calitatea": 6021,
  "\u2581modific\u0103": 6022,
  "\u2581promovarea": 6023,
  "\u2581blind": 6024,
  "\u2581weapons": 6025,
  "\u2581120": 6026,
  "uf": 6027,
  "\u2581distruge": 6028,
  "\u2581hop": 6029,
  "\u2581practic\u0103": 6030,
  "\u2581Information": 6031,
  "\u2581observa": 6032,
  "\u2581aduci": 6033,
  "pozi": 6034,
  "\u2581f\u0103cea": 6035,
  "\u2581amounts": 6036,
  "\u2581~": 6037,
  "illa": 6038,
  "\u25812010.": 6039,
  "du\u015f": 6040,
  "\u2581pie": 6041,
  "\u2581speaking": 6042,
  "\u2581loves": 6043,
  "\u2581suit": 6044,
  "35": 6045,
  "\u2581virus": 6046,
  "\u2581intern\u0103": 6047,
  "nc": 6048,
  "\u2581weapon": 6049,
  "\u2581primele": 6050,
  "\u2581receiving": 6051,
  "\u2581st\u00e2nga": 6052,
  "\u2581direction": 6053,
  "\u2581Spain": 6054,
  "\u2581linie": 6055,
  "lock": 6056,
  "\u2581sc\u0103pat": 6057,
  "\u2581zbor": 6058,
  "bis": 6059,
  "sey": 6060,
  "55": 6061,
  "teles": 6062,
  "\u2581dovedit": 6063,
  "\u2581proteja": 6064,
  "\u2581gaze": 6065,
  "\u2581depinde": 6066,
  "\u2581applicant": 6067,
  "\u2581driver": 6068,
  "\u2581autorit\u0103\u021bilor": 6069,
  "\u2581tools": 6070,
  "\u2581equivalent": 6071,
  "pin": 6072,
  "ple": 6073,
  "IS": 6074,
  "\u2581dubl\u0103": 6075,
  "\u2581p\u0103r\u021bile": 6076,
  "\u2581Old": 6077,
  "ised": 6078,
  "\u2581cadou": 6079,
  "\u2581willing": 6080,
  "pir": 6081,
  "\u2581acord\u0103": 6082,
  "vie": 6083,
  "\u2581components": 6084,
  "\u2581implicat": 6085,
  "sat": 6086,
  "\u2581chief": 6087,
  "rus": 6088,
  "\u2581slujba": 6089,
  "UR": 6090,
  "\u2581Ash": 6091,
  "\u2581analiza": 6092,
  "tui": 6093,
  "\u2581respect\u0103": 6094,
  "\u2581Uneori": 6095,
  "\u2581mondial": 6096,
  "\u2581dogs": 6097,
  "\u2581grant": 6098,
  "\u2581primesc": 6099,
  "\u2581contribute": 6100,
  "\u2581judge": 6101,
  "\u2581aspecte": 6102,
  "\u2581Mic": 6103,
  "\u2581maintain": 6104,
  "\u2581cin\u0103": 6105,
  "abil\u0103": 6106,
  "\u2581mutat": 6107,
  "rthur": 6108,
  "\u2581600": 6109,
  "\u2581heaven": 6110,
  "\u2581University": 6111,
  "\u0163er": 6112,
  "\u2581Chief": 6113,
  "\u2581Indian": 6114,
  "\u25812008,": 6115,
  "\u2581bolnav": 6116,
  "\u2581efectuat": 6117,
  "\u2581modificat": 6118,
  "ogan": 6119,
  "based": 6120,
  "nga": 6121,
  "\u2581consumer": 6122,
  "ug": 6123,
  "\u2581cars": 6124,
  "\u2581banks": 6125,
  "\u2581Without": 6126,
  "\u2581manner": 6127,
  "\u2581dying": 6128,
  "voastr": 6129,
  "\u2581claim": 6130,
  "\u2581bl": 6131,
  "\u2581bea": 6132,
  "\u2581privat": 6133,
  "\u2581treilea": 6134,
  "\u2581avion": 6135,
  "\u2581doamne": 6136,
  "\u2581records": 6137,
  "\u2581urgent": 6138,
  "\u2581WE": 6139,
  "\u2581deserve": 6140,
  "47": 6141,
  "\u2581spoke": 6142,
  "\u015foar\u0103": 6143,
  "\u2581\u00eentregi": 6144,
  "\u2581ac\u021biune": 6145,
  "\u2581p\u0103rea": 6146,
  "\u2581contextul": 6147,
  "upset": 6148,
  "\u2581fizic": 6149,
  "vic": 6150,
  "oo": 6151,
  "\u2581zonele": 6152,
  "ective": 6153,
  "\u2581lucrez": 6154,
  "\u2581Programme": 6155,
  "Minunat": 6156,
  "\u2581proper": 6157,
  "\u2581dollars": 6158,
  "\u2581G\u00e2nd": 6159,
  "\u2581Also": 6160,
  "\u2581requested": 6161,
  "\u2581trec": 6162,
  "\u2581pie\u0163e": 6163,
  "\u2581ensuring": 6164,
  "\u2581options": 6165,
  "\u2581\u00eencet": 6166,
  "\u2581customers": 6167,
  "\u2581minim": 6168,
  "\u2581Rob": 6169,
  "\u2581opportunities": 6170,
  "\u2581Saint": 6171,
  "\u2581grav": 6172,
  "\u2581Greek": 6173,
  "\u2581formare": 6174,
  "\u2581career": 6175,
  "\u2581c\u00eend": 6176,
  "\u2581mint": 6177,
  "\u2581importan": 6178,
  "\u2581activit\u0103\u021bile": 6179,
  "\u2581aceea\u0219i": 6180,
  "\u2581version": 6181,
  "\u2581termin": 6182,
  "\u2581fellow": 6183,
  "vel": 6184,
  "\u2581fe": 6185,
  "9/": 6186,
  "vol": 6187,
  "\u2581atins": 6188,
  "\u2581recunosc": 6189,
  "\u2581CYP": 6190,
  "\u2581closer": 6191,
  "\u2581realizarea": 6192,
  "\u2581Ger": 6193,
  "\u2581energiei": 6194,
  "abile": 6195,
  "\u2581medicale": 6196,
  "\u2581vision": 6197,
  "\u2581\u015fo": 6198,
  "\u2581charges": 6199,
  "\u2581older": 6200,
  "\u2581convince": 6201,
  "\u2581m\u00e2ncat": 6202,
  "\u2581extent": 6203,
  "\u2581district": 6204,
  "\u2581advantage": 6205,
  "\u2581seriously": 6206,
  "\u2581flu": 6207,
  "lig": 6208,
  "\u2581nave": 6209,
  "\u2581pozi\u021bia": 6210,
  "\u2581Hurry": 6211,
  "\u2581Harr": 6212,
  "\u015fului": 6213,
  "\u2581pierd": 6214,
  "\u2581adoptarea": 6215,
  "\u2581warm": 6216,
  "\u2581r\u0103spunsul": 6217,
  "\u2581flori": 6218,
  "dom": 6219,
  "www": 6220,
  "\u2581duties": 6221,
  "\u2581b\u0103ga": 6222,
  "furi": 6223,
  "\u2581Management": 6224,
  "registr": 6225,
  "\u2581Mad": 6226,
  "\u2581Potrivi": 6227,
  "\u2581informa\u021biilor": 6228,
  "lot": 6229,
  "\u2581affected": 6230,
  "\u2581dulce": 6231,
  "\u2581special\u0103": 6232,
  "\u2581performed": 6233,
  "\u2581rise": 6234,
  "\u25812018": 6235,
  "\u25811).": 6236,
  "\u2581ac\u021biuni": 6237,
  "\u2581indeed": 6238,
  "\u2581accepted": 6239,
  "\u2581practici": 6240,
  "\u2581proposals": 6241,
  "22": 6242,
  "cit": 6243,
  "\u2581challenge": 6244,
  "\u2581devin": 6245,
  "\u2581obligatoriu": 6246,
  "\u2581Happ": 6247,
  "\u2581comunicare": 6248,
  "\u258102": 6249,
  "\u2581c\u0103reia": 6250,
  "\u2581>": 6251,
  "\u2581sticl\u0103": 6252,
  "act": 6253,
  "\u2581puse": 6254,
  "\u2581cry": 6255,
  "\u2581island": 6256,
  "\u2581regiunea": 6257,
  "Ro": 6258,
  "\u258151": 6259,
  "49": 6260,
  "\u2581Br": 6261,
  "stinct": 6262,
  "\u2581arestat": 6263,
  "\u2581bla": 6264,
  "\u2581gestionare": 6265,
  "\u2581suport": 6266,
  "\u258149": 6267,
  "\u2581Board": 6268,
  "now": 6269,
  "polog": 6270,
  "town": 6271,
  "\u2581forgive": 6272,
  "ass": 6273,
  "\u2581useful": 6274,
  "\u2581liver": 6275,
  "\u2581copy": 6276,
  "like": 6277,
  "\u2581resurselor": 6278,
  "\u2581singuri": 6279,
  "\u2581piele": 6280,
  "\u2581engine": 6281,
  "\u2581hungry": 6282,
  "\u2581score": 6283,
  "media": 6284,
  "\u2581Cl": 6285,
  "\u2581chemat": 6286,
  "36": 6287,
  "\u2581\u03bc": 6288,
  "\u2581acuza": 6289,
  "cep": 6290,
  "\u2581situa\u021bia": 6291,
  "\u2581periculos": 6292,
  "\u2581,\"": 6293,
  "\u2581acte": 6294,
  "\u2581Primul": 6295,
  "\u021biile": 6296,
  "\u2581hol": 6297,
  "\u00e2ine": 6298,
  "\u2581wood": 6299,
  "\u2581constant": 6300,
  "\u2581Ajutor": 6301,
  "48": 6302,
  "\u2581b\u0103rba\u0163i": 6303,
  "\u2581vizit\u0103": 6304,
  "\u2581Bat": 6305,
  "\u2581efectele": 6306,
  "\u2581concept": 6307,
  "face": 6308,
  "\u2581men\u021bionat\u0103": 6309,
  "\u2581Chu": 6310,
  "\u2581bare": 6311,
  "\u2581approximately": 6312,
  "\u2581increasing": 6313,
  "\u2581Honey": 6314,
  "\u2581crew": 6315,
  "33": 6316,
  "\u2581operational": 6317,
  "\u2581p\u0103r\u0163i": 6318,
  "\u2581invited": 6319,
  "\u2581Gues": 6320,
  "\u2581SO": 6321,
  "\u2581competent\u0103": 6322,
  "\u2581neck": 6323,
  "tern": 6324,
  "\u2581ridica": 6325,
  "\u2581Fla": 6326,
  "\u2581quit": 6327,
  "\u2581Agent": 6328,
  "gal": 6329,
  "\u258152": 6330,
  "more": 6331,
  "\u2581sectors": 6332,
  "\u2581renal": 6333,
  "\u2581pack": 6334,
  "\u2581contain": 6335,
  "\u2581mijloc": 6336,
  "bus": 6337,
  "oid": 6338,
  "ons": 6339,
  "\u2581Tur": 6340,
  "\u2581cha": 6341,
  "\u2581easily": 6342,
  "\u2581Camp": 6343,
  "\u2581proof": 6344,
  "\u2581surgery": 6345,
  "ws": 6346,
  "\u2581contribui": 6347,
  "\u2581\u00eenregistrat": 6348,
  "\u2581degrab\u0103": 6349,
  "\u2581Times": 6350,
  "gy": 6351,
  "\u2581ki": 6352,
  "crap": 6353,
  "\u2581Cont": 6354,
  "mplat": 6355,
  "\u25812011.": 6356,
  "\u2581raised": 6357,
  "\u2581Santa": 6358,
  "\u2581leading": 6359,
  "\u2581\u015fapte": 6360,
  "\u2581Italian": 6361,
  "ismul": 6362,
  "\u2581famous": 6363,
  "itz": 6364,
  "\u2581entities": 6365,
  "\u2581hall": 6366,
  "\u2581practic": 6367,
  "\u2581Many": 6368,
  "\u2581efficient": 6369,
  "ett": 6370,
  "\u2581firm": 6371,
  "universe": 6372,
  "\u2581Rog": 6373,
  "\u2581sing": 6374,
  "ajul": 6375,
  "burg": 6376,
  "\u2581entity": 6377,
  "rum": 6378,
  "\u25812009.": 6379,
  "ump": 6380,
  "\u2581sistemelor": 6381,
  "\u2581gestionarea": 6382,
  "\u2581fals": 6383,
  "\u2581income": 6384,
  "ists": 6385,
  "\u258113.": 6386,
  "\u2581hurry": 6387,
  "\u2581federal": 6388,
  "\u2581lovely": 6389,
  "\u2581cheie": 6390,
  "\u2581femeia": 6391,
  "\u2581proiectului": 6392,
  "\u2581cutie": 6393,
  "\u2581concrete": 6394,
  "\u2581limits": 6395,
  "aici": 6396,
  "\u2581fr": 6397,
  "\u2581construi": 6398,
  "\u2581guard": 6399,
  "\u2581\u0163": 6400,
  "\u2581implic\u0103": 6401,
  "\u2581sky": 6402,
  "\u2581respira": 6403,
  "\u2581tape": 6404,
  "zin": 6405,
  "chin": 6406,
  "\u2581comments": 6407,
  "\u2581iubire": 6408,
  "\u2581promit": 6409,
  "\u2581implemented": 6410,
  "\u2581stories": 6411,
  "SS": 6412,
  "\u2581knock": 6413,
  "\u2581Ken": 6414,
  "\u2581EN": 6415,
  "\u2581uses": 6416,
  "\u2581\u00eenlocuie\u0219te": 6417,
  "\u2581sco": 6418,
  "\u2581ID": 6419,
  "\u2581dumne": 6420,
  "\u2581fotbal": 6421,
  "\u2581enemy": 6422,
  "ants": 6423,
  "\u2581Sound": 6424,
  "\u2581[1]": 6425,
  "\u2581amendments": 6426,
  "\u25812012,": 6427,
  "\u2581Intr\u0103": 6428,
  "\u2581families": 6429,
  "\u2581complet\u0103": 6430,
  "\u2581resurse": 6431,
  "bon": 6432,
  "\u2581anumit": 6433,
  "\u2581mobil": 6434,
  "\u2581email": 6435,
  "\u2581Joc": 6436,
  "\u2581american": 6437,
  "\u2581Blue": 6438,
  "RM": 6439,
  "31": 6440,
  "\u2581Chicago": 6441,
  "sortate": 6442,
  "\u2581rid": 6443,
  "ser": 6444,
  "\u2581mere": 6445,
  "\u2581medical\u0103": 6446,
  "\u25819,": 6447,
  "AC": 6448,
  "phy": 6449,
  "med": 6450,
  "ulations": 6451,
  "ghe": 6452,
  "\u2581moar\u0103": 6453,
  "-3": 6454,
  "\u2581exten": 6455,
  "\u2581Major": 6456,
  "\u2581Office": 6457,
  "zon": 6458,
  "\u2581Dave": 6459,
  "\u2581necesitatea": 6460,
  "\u2581schimbare": 6461,
  "\u2581healthy": 6462,
  "\u2581priority": 6463,
  "\u2581eating": 6464,
  "lick": 6465,
  "\u2581resolution": 6466,
  "\u2581taxi": 6467,
  "fen": 6468,
  "\u2581Cole": 6469,
  "\u2581Li": 6470,
  "\u2581Russia": 6471,
  "\u0163iu": 6472,
  "ostit": 6473,
  "\u2581p\u0103r\u0103sit": 6474,
  "32": 6475,
  "rut": 6476,
  "\u2581stuck": 6477,
  "teaz\u0103": 6478,
  "\u2581250": 6479,
  "\u2581Sho": 6480,
  "\u2581suprafa": 6481,
  "\u2581Em": 6482,
  "99": 6483,
  "\u2581Too": 6484,
  "\u2581occur": 6485,
  "\u2581sut\u0103": 6486,
  "\u2581maintenance": 6487,
  "\u2581verificat": 6488,
  "\u2581ciuda": 6489,
  "\u2581introduced": 6490,
  "\u2581beach": 6491,
  "\u2581ceai": 6492,
  "\u2581gratis": 6493,
  "\u2581Charle": 6494,
  "\u2581insuficien": 6495,
  "\u2581Europei": 6496,
  "\u2581initiative": 6497,
  "\u2581ideas": 6498,
  "\u2581happ": 6499,
  "\u2581license": 6500,
  "\u2581Eva": 6501,
  "\u2581ocup\u0103": 6502,
  "\u2581steel": 6503,
  "\u2581pr\u00e2nz": 6504,
  "\u2581respectarea": 6505,
  "\u2581heavy": 6506,
  "gno": 6507,
  "\u2581frumoase": 6508,
  "\u2581Conform": 6509,
  "\u2581est": 6510,
  "iness": 6511,
  "gat": 6512,
  "\u2581cards": 6513,
  "\u2581rating": 6514,
  "37": 6515,
  "\u2581Protocol": 6516,
  "ub": 6517,
  "EO": 6518,
  "\u2581administered": 6519,
  "\u2581mon": 6520,
  "\u2581Regatul": 6521,
  "\u2581medicului": 6522,
  "\u2581\u00eengrijorat": 6523,
  "\u2581staying": 6524,
  "\u2581wild": 6525,
  "Mi": 6526,
  "\u2581r\u0103m\u00e2n\u0103": 6527,
  "\u2581urmat": 6528,
  "\u2581surse": 6529,
  "n\u0163e": 6530,
  "\u2581consumatorilor": 6531,
  "\u2581unchiul": 6532,
  "\u2581suma": 6533,
  "\u2581corp": 6534,
  "\u2581moral": 6535,
  "\u2581primary": 6536,
  "\u2581secund\u0103": 6537,
  "\u2581smoke": 6538,
  "\u2581Five": 6539,
  "\u2581finan\u021bare": 6540,
  "\u2581submit": 6541,
  "\u2581obligation": 6542,
  "\u2581challenges": 6543,
  "\u2581m\u00e2ndr": 6544,
  "\u2581adul": 6545,
  "\u2581drinking": 6546,
  "\u2581monitor": 6547,
  "\u2581character": 6548,
  "dox": 6549,
  "\u2581electronice": 6550,
  "\u2581Land": 6551,
  "\u2581fetele": 6552,
  "mus": 6553,
  "\u2581growing": 6554,
  "\u2581introducerea": 6555,
  "oz": 6556,
  "\u2581fri": 6557,
  "\u2581cooperarea": 6558,
  "u\u0219": 6559,
  "\u2581Adu": 6560,
  "\u2581societatea": 6561,
  "sky": 6562,
  "\u2581manage": 6563,
  "Grozav": 6564,
  "ash": 6565,
  "\u2581Ultima": 6566,
  "\u2581relations": 6567,
  "rim": 6568,
  "\u2581\u0163\u0103rile": 6569,
  "\u2581majority": 6570,
  "\u2581c\u0103ruia": 6571,
  "\u2581judgment": 6572,
  "\u2581sleeping": 6573,
  "Un": 6574,
  "\u2581im": 6575,
  "vezi": 6576,
  "\u2581con\u021bine": 6577,
  "\u2581electrice": 6578,
  "\u2581adev\u0103rat\u0103": 6579,
  "\u2581Alb": 6580,
  "\u2581ajung\u0103": 6581,
  "\u2581monitorizare": 6582,
  "\u2581danger": 6583,
  "\u2581haine": 6584,
  "\u258101": 6585,
  "\u2581t\u0103": 6586,
  "\u2581carrying": 6587,
  "\u2581humans": 6588,
  "\u2581rezerv\u0103": 6589,
  "\u2581Report": 6590,
  "\u2581semnat": 6591,
  "\u2581urgen": 6592,
  "\u2581Joint": 6593,
  "\u2581distra": 6594,
  "\u2581Find": 6595,
  "2)": 6596,
  "\u2581harm": 6597,
  "\u015fc\u0103": 6598,
  "\u2581breath": 6599,
  "\u2581\u00centre": 6600,
  "\u2581rele": 6601,
  "\u2581Euratom": 6602,
  "\u2581bringing": 6603,
  "\u2581Lou": 6604,
  "\u2581protected": 6605,
  "\u2581riscurilor": 6606,
  "\u2581easier": 6607,
  "eful": 6608,
  "\u2581cald": 6609,
  "sem": 6610,
  "\u2581Pavel": 6611,
  "\u2581procesului": 6612,
  "\u2581Kel": 6613,
  "4/": 6614,
  "ament": 6615,
  "\u2581organism": 6616,
  "stant": 6617,
  "\u2581Raportul": 6618,
  "ristos": 6619,
  "\u2581principale": 6620,
  "\u2581cup": 6621,
  "\u2581Bor": 6622,
  "\u2581Michel": 6623,
  "\u2581propune": 6624,
  "\u2581Name": 6625,
  "\u2581Poti": 6626,
  "\u2581breast": 6627,
  "\u2581studiile": 6628,
  "\u2581rev": 6629,
  "\u2581Joseph": 6630,
  "\u2581Queen": 6631,
  "\u2581climatice": 6632,
  "\u00fc": 6633,
  "\u2581AS": 6634,
  "\u2581acordate": 6635,
  "n\u0163at": 6636,
  "including": 6637,
  "\u2581sufletul": 6638,
  "\u2581produsul": 6639,
  "\u2581considerate": 6640,
  "\u2581Op": 6641,
  "onul": 6642,
  "atic": 6643,
  "\u2581System": 6644,
  "\u2581Doi": 6645,
  "\u2581camion": 6646,
  "\u2581recunoa\u015fte": 6647,
  "\u2581costurilor": 6648,
  "\u2581animalelor": 6649,
  "\u2581Wood": 6650,
  "\u2581lift": 6651,
  "\u2581avans": 6652,
  "ike": 6653,
  "\u2581comunitar": 6654,
  "\u2581apart": 6655,
  "\u2581committed": 6656,
  "\u2581devin\u0103": 6657,
  "\u2581undertaking": 6658,
  "\u2581California": 6659,
  "\u2581Justice": 6660,
  "\u2581solutions": 6661,
  "\u2581c\u0103utat": 6662,
  "\u2581river": 6663,
  "t\u00e3": 6664,
  "\u2581treci": 6665,
  "\u2581agents": 6666,
  "\u2581joke": 6667,
  "\u2581Financial": 6668,
  "\u2581notes": 6669,
  "\u2581politi": 6670,
  "ern": 6671,
  "\u2581exceeding": 6672,
  "\u2581Health": 6673,
  "\u2581sol": 6674,
  "\u2581medic": 6675,
  "0,": 6676,
  "stan": 6677,
  "\u2581aju\u0163i": 6678,
  "\u2581profesor": 6679,
  "\u258185": 6680,
  "\u2581\u00eenchide": 6681,
  "\u2581costum": 6682,
  "asse": 6683,
  "\u25812013,": 6684,
  "\u2581Power": 6685,
  "\u2581intru": 6686,
  "\u2581undertakings": 6687,
  "29": 6688,
  "\u2581items": 6689,
  "\u2581vinovat": 6690,
  "\u2581mini": 6691,
  "WHAT": 6692,
  "\u2581Adoptat": 6693,
  "\u2581COMMISSION": 6694,
  "\u2581pool": 6695,
  "ward": 6696,
  "alul": 6697,
  "\u2581answers": 6698,
  "\u2581command": 6699,
  "\u2581propriul": 6700,
  "\u258115.": 6701,
  "\u2581bullet": 6702,
  "\u2581blame": 6703,
  "\u2581chei": 6704,
  "\u2581steal": 6705,
  "toarea": 6706,
  "\u2581relative": 6707,
  "omi": 6708,
  "\u2581leaves": 6709,
  "\u2581Madam": 6710,
  "\u2581(2": 6711,
  "TE": 6712,
  "vy": 6713,
  "ters": 6714,
  "\u2581g\u0103se\u015ft": 6715,
  "\u2581effort": 6716,
  "nseamn": 6717,
  "\u2581deliver": 6718,
  "\u2581guvernul": 6719,
  "\u2581Rom": 6720,
  "\u2581understanding": 6721,
  "\u2581Light": 6722,
  "\u2581nervous": 6723,
  "\u2581partid": 6724,
  "\u2581bazeaz\u0103": 6725,
  "IC": 6726,
  "\u2581construc": 6727,
  "\u2581urm\u0103ri": 6728,
  "\u2581bottom": 6729,
  "\u2581m\u00e2nca": 6730,
  "OS": 6731,
  "\u2581linia": 6732,
  "\u2581societate": 6733,
  "\u2581Ph": 6734,
  "turile": 6735,
  "\u2581leader": 6736,
  "\u2581secure": 6737,
  "r\u00e3": 6738,
  "\u2581afecteaz\u0103": 6739,
  "\u2581stabile\u0219te": 6740,
  "\u2581HE": 6741,
  "\u2581Church": 6742,
  "ist\u0103": 6743,
  "\u2581rus": 6744,
  "\u2581transportul": 6745,
  "\u2581Doc": 6746,
  "fla": 6747,
  "\u25812007,": 6748,
  "\u2581figured": 6749,
  "\u2581liber\u0103": 6750,
  "\u2581failed": 6751,
  "\u2581p\u0103rere": 6752,
  "\u2581spread": 6753,
  "\u2581propriu": 6754,
  "\u2581real\u0103": 6755,
  "\u2581seek": 6756,
  "\u2581dare": 6757,
  "mark": 6758,
  "\u2581Ireland": 6759,
  "\u2581\u00eent\u00e2mple": 6760,
  "\u2581destinat": 6761,
  "8/": 6762,
  "\u2581Yu": 6763,
  "\u2581dezvolt\u0103rii": 6764,
  "\u2581Caut": 6765,
  "\u2581electricity": 6766,
  "\u2581truly": 6767,
  "OT": 6768,
  "\u2581folosind": 6769,
  "\u2581finding": 6770,
  "\u2581victims": 6771,
  "\u2581b\u0103tut": 6772,
  "ska": 6773,
  "\u2581Friday": 6774,
  "\u2581fo": 6775,
  "\u2581taught": 6776,
  "coli": 6777,
  "\u2581core": 6778,
  "\u2581empty": 6779,
  "\u2581Government": 6780,
  "rci": 6781,
  "\u2581Nicio": 6782,
  "\u2581blocat": 6783,
  "\u2581suggest": 6784,
  "\u2581Auto": 6785,
  "\u2581intrarea": 6786,
  "\u2581Run": 6787,
  "\u2581greatest": 6788,
  "\u2581larg\u0103": 6789,
  "\u2581util": 6790,
  "\u2581aflu": 6791,
  "\u2581conduct": 6792,
  "\u2581although": 6793,
  "\u2581Finally": 6794,
  "\u2581phase": 6795,
  "rey": 6796,
  "wan": 6797,
  "\u258153": 6798,
  "\u2581c\u00e2ntec": 6799,
  "\u2581concerns": 6800,
  "\u2581construit": 6801,
  "\u2581innocent": 6802,
  "\u2581shoes": 6803,
  "nov": 6804,
  "\u2581\u00eenregistrare": 6805,
  "\u2581domenii": 6806,
  "\u2581Anexa": 6807,
  "\u2581\u00eencheiat": 6808,
  "rator": 6809,
  "\u2581proceedings": 6810,
  "\u2581Autoritatea": 6811,
  "\u2581urm\u0103rit": 6812,
  "\u2581siguranta": 6813,
  "TM": 6814,
  "heart": 6815,
  "\u021biei": 6816,
  "\u2581integration": 6817,
  "vie\u0163ui": 6818,
  "\u2581falling": 6819,
  "\u2581dragostea": 6820,
  "\u2581\u015ftiin\u0163": 6821,
  "\u2581Hand": 6822,
  "\u2581identify": 6823,
  "\u2581conducere": 6824,
  "\u2581prezen": 6825,
  "\u2581direc": 6826,
  "\u2581v\u00e2nzare": 6827,
  "\u2581mile": 6828,
  "Le": 6829,
  "\u2581rapid\u0103": 6830,
  "lac": 6831,
  "\u2581crede\u0163i": 6832,
  "\u2581\u015eti\u0163i": 6833,
  "\u2581impresi": 6834,
  "\u2581Mir": 6835,
  "\u2581fiule": 6836,
  "\u2581tehnic\u0103": 6837,
  "\u2581proast\u0103": 6838,
  "ned": 6839,
  "\u2581COM": 6840,
  "\u2581learning": 6841,
  "\u2581wondering": 6842,
  "\u2581Games": 6843,
  "\u2581permit\u0103": 6844,
  "\u2581trimit": 6845,
  "\u2581\u00een\u0163elegere": 6846,
  "\u2581expressed": 6847,
  "\u2581exclusiv": 6848,
  "tului": 6849,
  "\u2581settlement": 6850,
  "95": 6851,
  "\u2581Kill": 6852,
  "\u2581ch": 6853,
  "85": 6854,
  "\u25812012.": 6855,
  "\u2581Sur": 6856,
  "\u2581sf\u00e2r\u0219itul": 6857,
  "\u2581intern": 6858,
  "\u25814:": 6859,
  "\u2581Greece": 6860,
  "\u2581pricep": 6861,
  "\u2581Ltd": 6862,
  "st\u0103": 6863,
  "\u2581Smith": 6864,
  "\u2581legisla\u021bia": 6865,
  "\u2581componente": 6866,
  "\u2581Bon": 6867,
  "\u258114.": 6868,
  "\u2581lit": 6869,
  "\u2581elegant": 6870,
  "\u2581regulations": 6871,
  "MS": 6872,
  "\u2581aduc\u0103": 6873,
  "\u2581pretend": 6874,
  "pur": 6875,
  "\u2581Bring": 6876,
  "\u2581flowers": 6877,
  "\u00cencearc\u0103": 6878,
  "\u2581acordul": 6879,
  "mann": 6880,
  "\u2581admit": 6881,
  "\u2581facilitate": 6882,
  "\u2581informed": 6883,
  "siune": 6884,
  "\u2581style": 6885,
  "\u2581herself": 6886,
  "\u2581compania": 6887,
  "\u2581fasci": 6888,
  "\u2581Una": 6889,
  "\u2581bigger": 6890,
  "\u2581forces": 6891,
  "mai": 6892,
  "\u2581beer": 6893,
  "\u2581captain": 6894,
  "\u2581asigur": 6895,
  "\u2581val": 6896,
  "oli": 6897,
  "\u2581schimbul": 6898,
  "\u2581Add": 6899,
  "\u2581arrived": 6900,
  "\u2581Vrea": 6901,
  "\u2581pieces": 6902,
  "\u2581successful": 6903,
  "\u2581povesti": 6904,
  "ano": 6905,
  "\u2581Nicol": 6906,
  "sc\u0103": 6907,
  "\u2581ANNEX": 6908,
  "\u2581Uncl": 6909,
  "\u2581nava": 6910,
  "\u2581hole": 6911,
  "\u2581garden": 6912,
  "NA": 6913,
  "\u2581Witnesses": 6914,
  "gor": 6915,
  "\u2581vehicule": 6916,
  "\u2581registration": 6917,
  "\u2581planned": 6918,
  "\u2581Des": 6919,
  "\u2581OR": 6920,
  "\u2581player": 6921,
  "\u2581meetings": 6922,
  "\u2581articles": 6923,
  "propo": 6924,
  "ual": 6925,
  "\u2581facilities": 6926,
  "\u2581managed": 6927,
  "\u2581length": 6928,
  "\u2581Urm": 6929,
  "met": 6930,
  "\u2581testing": 6931,
  "\u2581serviciul": 6932,
  "\u2581Talk": 6933,
  "\u2581dispozi\u021bii": 6934,
  "usi": 6935,
  "\u258172": 6936,
  "\u2581muzica": 6937,
  "kins": 6938,
  "\u2581limita": 6939,
  "\u2581\u00eentreprinderile": 6940,
  "\u2581Var": 6941,
  "\u2581Pacien": 6942,
  "\u2581manual": 6943,
  "\u2581chosen": 6944,
  "\u2581Ross": 6945,
  "IM": 6946,
  "\u2581legea": 6947,
  "\u2581articole": 6948,
  "eau": 6949,
  "\u2581signal": 6950,
  "\u2581recovery": 6951,
  "\u2581plata": 6952,
  "pus": 6953,
  "\u2581domn": 6954,
  "\u2581Saturday": 6955,
  "kar": 6956,
  "\u2581unique": 6957,
  "\u2581adolescen": 6958,
  "\u2581screen": 6959,
  "\u2581influence": 6960,
  "\u2581abordare": 6961,
  "\u2581parking": 6962,
  "\u2581for\u021bei": 6963,
  "\u2581adopt\u0103": 6964,
  "\u2581continued": 6965,
  "\u2581cent": 6966,
  "\u2581fond": 6967,
  "\u2581boal\u0103": 6968,
  "\u25812013.": 6969,
  "\u2581nose": 6970,
  "\u2581cur\u0103\u0163": 6971,
  "\u2581lini": 6972,
  "ments": 6973,
  "\u2581user": 6974,
  "pic": 6975,
  "\u2581Sus": 6976,
  "\u2581industriei": 6977,
  "\u2581definite": 6978,
  "\u2581societ\u0103\u021bii": 6979,
  "\u2581Pari": 6980,
  "\u2581c\u0103s\u0103torit": 6981,
  "\u2581Vol": 6982,
  "umim": 6983,
  "08": 6984,
  "\u2581c\u0103utarea": 6985,
  "atoare": 6986,
  "\u2581anterioare": 6987,
  "$": 6988,
  "\u2581bai": 6989,
  "bot": 6990,
  "\u2581reform": 6991,
  "\u2581c\u0103pitan": 6992,
  "sec": 6993,
  "\u2581pacient": 6994,
  "\u015ftig\u0103": 6995,
  "\u2581goal": 6996,
  "hor": 6997,
  "rito": 6998,
  "\u2581Gil": 6999,
  "\u2581numeroase": 7000,
  "\u2581Walk": 7001,
  "\u2581flow": 7002,
  "olo": 7003,
  "\u2581confirmed": 7004,
  "SA": 7005,
  "\u2581confrunt\u0103": 7006,
  "\u2581natur\u0103": 7007,
  "\u2581released": 7008,
  "\u2581alia": 7009,
  "\u2581valorile": 7010,
  "\u258116.": 7011,
  "\u2581individuals": 7012,
  "\u2581sec\u021biunea": 7013,
  "\u2581f\u0103cute": 7014,
  "\u2581checked": 7015,
  "\u2581Association": 7016,
  "\u2581losing": 7017,
  "\u2581\u021bine": 7018,
  "\u2581alimente": 7019,
  "ington": 7020,
  "ela": 7021,
  "\u258154": 7022,
  "europa": 7023,
  "rich": 7024,
  "\u2581distance": 7025,
  "nci": 7026,
  "\u2581personale": 7027,
  "indu": 7028,
  "\u2581realizate": 7029,
  "\u2581aspects": 7030,
  "\u2581cadavr": 7031,
  "\u2581Control": 7032,
  "\u2581celebr": 7033,
  "cet": 7034,
  "\u2581copilului": 7035,
  "\u2581Alan": 7036,
  "\u2581Hy": 7037,
  "\u2581gu": 7038,
  "\u2581edi": 7039,
  "\u2581neuro": 7040,
  "\u2581trezit": 7041,
  "\u2581transfrontalier": 7042,
  "\u2581characteristics": 7043,
  "nice": 7044,
  "zu": 7045,
  "\u2581medium": 7046,
  "EM": 7047,
  "\u2581cazurile": 7048,
  "Al": 7049,
  "siunea": 7050,
  "\u2581Thus": 7051,
  "n\u021ba": 7052,
  "\u2581securitatea": 7053,
  "\u2581chip": 7054,
  "that": 7055,
  "\u2581lapte": 7056,
  "PA": 7057,
  "\u2581comanda": 7058,
  "rezi": 7059,
  "\u2581curse": 7060,
  "\u2581Helen": 7061,
  "\u2581largest": 7062,
  "\u2581rec": 7063,
  "\u2581regionale": 7064,
  "\u2581locului": 7065,
  "\u2581variety": 7066,
  "\u2581praf": 7067,
  "\u2581laborator": 7068,
  "tiile": 7069,
  "\u2581realitate": 7070,
  "oogle": 7071,
  "\u0163at": 7072,
  "\u2581privin\u0163": 7073,
  "\u2581Mus": 7074,
  "nt\u0103": 7075,
  "\u2581McC": 7076,
  "\u2581agenda": 7077,
  "\u2581surveillance": 7078,
  "\u2581shock": 7079,
  "\u2581Londra": 7080,
  "\u2581fi\u0163i": 7081,
  "\u2581Noroc": 7082,
  "TI": 7083,
  "yle": 7084,
  "\u2581s\u00e2ngele": 7085,
  "teva": 7086,
  "\u25815%": 7087,
  "sim": 7088,
  "vent": 7089,
  "\u2581promotion": 7090,
  "\u2581Frumo": 7091,
  "\u2581prejudice": 7092,
  "\u2581discovered": 7093,
  "\u2581unu": 7094,
  "\u2581Macedonia": 7095,
  "\u2581inf": 7096,
  "#": 7097,
  "ENT": 7098,
  "\u2581Sunday": 7099,
  "\u2581folk": 7100,
  "68": 7101,
  "\u2581infection": 7102,
  "\u2581raportate": 7103,
  "\u2581lab": 7104,
  "\u2581efectueaz\u0103": 7105,
  "\u2581ghea": 7106,
  "\u2581milion": 7107,
  "nceput": 7108,
  "rbe": 7109,
  "\u2581considers": 7110,
  "eli": 7111,
  "poca": 7112,
  "\u2581delivery": 7113,
  "\u2581f\u0103cut\u0103": 7114,
  "ATE": 7115,
  "\u2581Ask": 7116,
  "pentru": 7117,
  "\u2581egal": 7118,
  "\u2581aflate": 7119,
  "onare": 7120,
  "\u2581profile": 7121,
  "ology": 7122,
  "ess": 7123,
  "\u2581mi\u015fc\u0103": 7124,
  "\u2581celei": 7125,
  "\u2581micul": 7126,
  "\u2581rezolva": 7127,
  "\u2581codul": 7128,
  "\u2581\u0218I": 7129,
  "\u2581iubito": 7130,
  "\u2581addressed": 7131,
  "\u2581capitolul": 7132,
  "\u2581Spirit": 7133,
  "\u2581teacher": 7134,
  "\u2581drepturi": 7135,
  "\u2581energia": 7136,
  "97": 7137,
  "\u2581explic": 7138,
  "\u2581deschise": 7139,
  "lay": 7140,
  "\u2581owner": 7141,
  "\u2581Gold": 7142,
  "\u2581implement": 7143,
  "\u2581celule": 7144,
  "\u2581perform": 7145,
  "\u2581Both": 7146,
  "\u2581cheltuielile": 7147,
  "\u015f\u0103": 7148,
  "\u2581Fir": 7149,
  "\u2581completed": 7150,
  "\u2581Spania": 7151,
  "And": 7152,
  "onarea": 7153,
  "\u2581surprised": 7154,
  "inclusiv": 7155,
  "inte": 7156,
  "\u0163in\u0103": 7157,
  "\u2581turns": 7158,
  "chiul": 7159,
  "\u00ed": 7160,
  "\u2581calculated": 7161,
  "\u2581al\u0163i": 7162,
  "\u2581eficace": 7163,
  "bat": 7164,
  "\u2581valid": 7165,
  "\u25812014,": 7166,
  "\u2581fructe": 7167,
  "yo": 7168,
  "\u2581ridic\u0103": 7169,
  "\u2581asisten\u021b\u0103": 7170,
  "\u2581remove": 7171,
  "\u2581eliberat": 7172,
  "\u2581Him": 7173,
  "\u2581Plec": 7174,
  "\u2581pia\u0163a": 7175,
  "\u2581juridic": 7176,
  "rk": 7177,
  "\u2581transmite": 7178,
  "\u2581grad": 7179,
  "\u25812014.": 7180,
  "\u2581inim\u0103": 7181,
  "98": 7182,
  "\u2581\u00eendoial\u0103": 7183,
  "\u2581convins": 7184,
  "\u2581subiect": 7185,
  "\u2581everywhere": 7186,
  "\u2581Doamn\u0103": 7187,
  "\u2581Ora": 7188,
  "\u2581p\u0103cate": 7189,
  "\u2581Albert": 7190,
  "\u2581images": 7191,
  "\u2581alerg": 7192,
  "\u2581Besides": 7193,
  "\u2581plate": 7194,
  "\u2581documente": 7195,
  "\u2581teaching": 7196,
  "\u2581tin": 7197,
  "\u2581Iti": 7198,
  "g\u00e2": 7199,
  "\u2581Ie\u015fi": 7200,
  "\u2581bunch": 7201,
  "\u2581culture": 7202,
  "\u2581ancient": 7203,
  "\u2581transmission": 7204,
  "\u2581conference": 7205,
  "\u2581lies": 7206,
  "\u2581Papa": 7207,
  "An": 7208,
  "\u2581t\u00e2r": 7209,
  "\u2581resulting": 7210,
  "ison": 7211,
  "://": 7212,
  "\u2581Four": 7213,
  "\u2581laugh": 7214,
  "[": 7215,
  "\u2581admi": 7216,
  "\u2581por\u0163i": 7217,
  "\u2581producer": 7218,
  "\u2581slujb\u0103": 7219,
  "\u2581numi": 7220,
  "inapoi": 7221,
  "\u2581genera": 7222,
  "\u2581reale": 7223,
  "\u2581tablet": 7224,
  "\u2581incident": 7225,
  "\u2581categorie": 7226,
  "\u2581Service": 7227,
  "\u2581locked": 7228,
  "\u2581Camera": 7229,
  "\u2581categories": 7230,
  "\u2581Albania": 7231,
  "\u0103\u0163ilor": 7232,
  "\u2581Programul": 7233,
  "43": 7234,
  "\u2581tight": 7235,
  "\u2581Though": 7236,
  "\u2581properly": 7237,
  "\u2581Film": 7238,
  "\u2581Est": 7239,
  "\u2581echipamente": 7240,
  "\u2581believed": 7241,
  "\u2581cuiva": 7242,
  "gr": 7243,
  "\u2581bone": 7244,
  "\u2581Sil": 7245,
  "\u2581\u00eenregistrate": 7246,
  "\u2581destroyed": 7247,
  "\u2581formula": 7248,
  "fra": 7249,
  "\u2581rent": 7250,
  "\u2581invita": 7251,
  "kh": 7252,
  "urat": 7253,
  "\u2581suflet": 7254,
  "mond": 7255,
  "dal": 7256,
  "hy": 7257,
  "\u2581Bud": 7258,
  "\u2581item": 7259,
  "\u2581reality": 7260,
  "\u2581legs": 7261,
  "\u2581RO": 7262,
  "ib": 7263,
  "\u2581muncii": 7264,
  "\u2581waters": 7265,
  "\u2581regiune": 7266,
  "\u2581capable": 7267,
  "RS": 7268,
  "\u2581criteriile": 7269,
  "\u2581cuprinde": 7270,
  "\u2581Bea": 7271,
  "qua": 7272,
  "\u2581CA": 7273,
  "EA": 7274,
  "\u2581centru": 7275,
  "0/": 7276,
  "put": 7277,
  "nz": 7278,
  "\u2581Business": 7279,
  "\u2581dozei": 7280,
  "\u2581Gro": 7281,
  "\u2581IMM": 7282,
  "\u2581administra": 7283,
  "\u2581offering": 7284,
  "\u2581transactions": 7285,
  "\u2581idei": 7286,
  "\u2581possibly": 7287,
  "\u2581determina": 7288,
  "ssa": 7289,
  "\u2581Susan": 7290,
  "\u2581tasks": 7291,
  "\u2581conversation": 7292,
  "\u2581secrete": 7293,
  "38": 7294,
  "ough": 7295,
  "\u2581grupuri": 7296,
  "\u2581mediul": 7297,
  "\u2581Trimite": 7298,
  "mare": 7299,
  "ey": 7300,
  "\u2581dejun": 7301,
  "\u2581adev\u0103r": 7302,
  "\u2581cerc": 7303,
  "44": 7304,
  "\u2581b\u0103iatul": 7305,
  "UT": 7306,
  "\u2581investments": 7307,
  "\u2581paragraphs": 7308,
  "\u2581demonstrat": 7309,
  "\u2581martor": 7310,
  "\u2581Ten": 7311,
  "\u2581Apart": 7312,
  "Yes": 7313,
  "ches": 7314,
  "\u2581Camel": 7315,
  "\u2581Sarah": 7316,
  "\u2581hat": 7317,
  "\u2581vorbea": 7318,
  "\u2581removed": 7319,
  "\u2581comp": 7320,
  "\u2581devices": 7321,
  "\u2581reaction": 7322,
  "\u2581fer": 7323,
  "\u2581posibile": 7324,
  "\u2581Cho": 7325,
  "oz\u0103": 7326,
  "\u2581ver": 7327,
  "\u2581Ob": 7328,
  "\u2581appears": 7329,
  "\u2581fill": 7330,
  "\u2581Food": 7331,
  "\u2581apropiat": 7332,
  "\u2581prega": 7333,
  "\u2581(7)": 7334,
  "\u2581returned": 7335,
  "\u2581actuale": 7336,
  "onia": 7337,
  "set": 7338,
  "\u2581mate": 7339,
  "\u015fteptat": 7340,
  "\u2581genetic": 7341,
  "\u2581beneficia": 7342,
  "torului": 7343,
  "\u2581vizibile": 7344,
  "mani": 7345,
  "\u2581fired": 7346,
  "\u2581Ag": 7347,
  "dic": 7348,
  "\u2581Stat": 7349,
  "\u2581recommendations": 7350,
  "41": 7351,
  "eg": 7352,
  "\u2581clients": 7353,
  "zie": 7354,
  "\u2581mi\u015fcare": 7355,
  "mas": 7356,
  "\u2581Services": 7357,
  "\u2581ofere": 7358,
  "\u2581campaign": 7359,
  "\u2581suferit": 7360,
  "\u2581paying": 7361,
  "\u2581stra": 7362,
  "\u2581univers": 7363,
  "\u2581poporul": 7364,
  "\u2581becomes": 7365,
  "\u2581fiscal": 7366,
  "izing": 7367,
  "\u2020": 7368,
  "dov": 7369,
  "\u2581voia": 7370,
  "Po": 7371,
  "\u2581acceptat": 7372,
  "\u2581dovad\u0103": 7373,
  "mpire": 7374,
  "scu": 7375,
  "\u2581stone": 7376,
  "\u2581et": 7377,
  "\u2581Bri": 7378,
  "\u2581[2]": 7379,
  "\u2581semnificative": 7380,
  "\u2581spin": 7381,
  "\u2581\u00eentoarcem": 7382,
  "\u2581(3": 7383,
  "\u2581prepare": 7384,
  "\u2581obiectivelor": 7385,
  "\u2581stated": 7386,
  "onat\u0103": 7387,
  "\u2581eveniment": 7388,
  "89": 7389,
  "\u2581Energy": 7390,
  "\u2581dialogue": 7391,
  "pla": 7392,
  "\u2581autoriza": 7393,
  "cr": 7394,
  "\u2581dreptului": 7395,
  "\u2581mor\u0163i": 7396,
  "zia": 7397,
  "\u2581clien": 7398,
  "\u2581Fra": 7399,
  "\u2581representatives": 7400,
  "\u2581flying": 7401,
  "\u2581checks": 7402,
  "\u2581interna\u021bional": 7403,
  "\u2581controlled": 7404,
  "\u2581technologies": 7405,
  "\u2581Bad": 7406,
  "\u2581Similar": 7407,
  "\u2581zilei": 7408,
  "\u2581existence": 7409,
  "\u2581recunoscut": 7410,
  "\u2581culc": 7411,
  "\u2581River": 7412,
  "\u2581NATO": 7413,
  "\u2581comparativ": 7414,
  "\u258157": 7415,
  "\u2581con\u021bin": 7416,
  "roc": 7417,
  "PS": 7418,
  "\u2581vorb\u0103": 7419,
  "ibil": 7420,
  "\u2581alcohol": 7421,
  "\u2581supported": 7422,
  "\u2581Lin": 7423,
  "\u2581argument": 7424,
  "\u2581Presupun": 7425,
  "CH": 7426,
  "\u2581trafic": 7427,
  "vii": 7428,
  "\u2581Turkey": 7429,
  "\u2581obviously": 7430,
  "\u2581drog": 7431,
  "ofi": 7432,
  "\u2581whereas": 7433,
  "\u2581duration": 7434,
  "\u2581vital": 7435,
  "\u2581claims": 7436,
  "\u2581Prieten": 7437,
  "\u2581studio": 7438,
  "\u2581connected": 7439,
  "gur": 7440,
  "izate": 7441,
  "\u2581negotiations": 7442,
  "bur": 7443,
  "Yea": 7444,
  "88": 7445,
  "Di": 7446,
  "\u2581corect\u0103": 7447,
  "\u2581guilty": 7448,
  "\u2581Communication": 7449,
  "\u2581Prea": 7450,
  "\u2581ad\u00e2nc": 7451,
  "\u2581classification": 7452,
  "\u2581Sala": 7453,
  "\u2581cazului": 7454,
  "dis": 7455,
  "\u2581dreams": 7456,
  "\u015ftiga": 7457,
  "\u2581gr\u0103mad\u0103": 7458,
  "onstru": 7459,
  "-5": 7460,
  "\u2581map": 7461,
  "\u2581misiune": 7462,
  "\u2581g\u0103seasc\u0103": 7463,
  "ester": 7464,
  "ost": 7465,
  "\u2581Deja": 7466,
  "\u2581moart\u0103": 7467,
  "\u2581Nathan": 7468,
  "\u2581block": 7469,
  "\u2581sample": 7470,
  "\u2581rugat": 7471,
  "UM": 7472,
  "\u2581ero": 7473,
  "\u2581Bla": 7474,
  "\u2581Young": 7475,
  "wen": 7476,
  "\u2581\u00eenalt\u0103": 7477,
  "\u2581stress": 7478,
  "\u2581public\u0103rii": 7479,
  "\u2581minunat\u0103": 7480,
  "\u2581regulile": 7481,
  "ions": 7482,
  "rix": 7483,
  "\u015fii": 7484,
  "\u2581ADN": 7485,
  "\u258111,": 7486,
  "\u2581dincolo": 7487,
  "\u2581agency": 7488,
  "\u2581debate": 7489,
  "\u2581temporary": 7490,
  "\u2581dispune": 7491,
  "\u2581ordin": 7492,
  "\u2581probe": 7493,
  "\u2581Consiliu": 7494,
  "\u2581s\u0103n\u0103tatea": 7495,
  "\u2581delivered": 7496,
  "\u2581fantas": 7497,
  "\u2581Year": 7498,
  "\u2581showing": 7499,
  "\u2581degree": 7500,
  "\u2581keys": 7501,
  "\u2581automat": 7502,
  "\u2581biggest": 7503,
  "\u2581omori": 7504,
  "\u00eend": 7505,
  "\u2581gain": 7506,
  "\u2581victime": 7507,
  "\u2581fier": 7508,
  "\u2581commitment": 7509,
  "\u2581Spanish": 7510,
  "\u2581robot": 7511,
  "\u2581Better": 7512,
  "\u2581scrisoare": 7513,
  "\u2581C\u00e2te": 7514,
  "ime": 7515,
  "\u2581consolidarea": 7516,
  "spe": 7517,
  "\u2581realiza": 7518,
  "\u2581Cre": 7519,
  "\u2581Jacob": 7520,
  "\u2581stole": 7521,
  "stim": 7522,
  "\u2581eforturile": 7523,
  "\u2581doses": 7524,
  "\u2581subjects": 7525,
  "\u2581hiding": 7526,
  "46": 7527,
  "\u2581survive": 7528,
  "\u2581lec": 7529,
  "\u2581thousands": 7530,
  "\u2581Parties": 7531,
  "\u2581pet": 7532,
  "\u2581nearly": 7533,
  "\u2581bunic": 7534,
  "\u2581con\u021binut": 7535,
  "\u2581noise": 7536,
  "\u2581criz\u0103": 7537,
  "uckles": 7538,
  "\u2581highest": 7539,
  "tinut": 7540,
  "\u2581furnizarea": 7541,
  "isation": 7542,
  "\u2581strad\u0103": 7543,
  "\u2581\u2265": 7544,
  "\u2581individuale": 7545,
  "\u2581prezinte": 7546,
  "\u2581\u015eef": 7547,
  "ova": 7548,
  "\u2581emisiilor": 7549,
  "\u2581notification": 7550,
  "\u2581duc\u0103": 7551,
  "\u2581parcare": 7552,
  "\u2581sosit": 7553,
  "\u2581pure": 7554,
  "\u2581Action": 7555,
  "\u2581organic": 7556,
  "IP": 7557,
  "\u2581tool": 7558,
  "\u2581competitive": 7559,
  "\u2581keeps": 7560,
  "\u2581conferin": 7561,
  "\u2581ulterior": 7562,
  "\u2581crash": 7563,
  "\u2581season": 7564,
  "\u2581privi": 7565,
  "\u258193": 7566,
  "\u2581Rusia": 7567,
  "\u2581parent": 7568,
  "ID": 7569,
  "\u2581c\u00e2nta": 7570,
  "\u2581Ku": 7571,
  "\u2581gras": 7572,
  "\u2581smile": 7573,
  "MA": 7574,
  "\u2581Aren": 7575,
  "\u258187": 7576,
  "\u2581Eve": 7577,
  "\u2581bogat": 7578,
  "\u2581informare": 7579,
  "\u2581na\u021bional\u0103": 7580,
  "\u2581identification": 7581,
  "\u2581fields": 7582,
  "\u2581r\u0103": 7583,
  "77": 7584,
  "\u2581frequency": 7585,
  "\u2581fiec\u0103rui": 7586,
  "\u2581violence": 7587,
  "elle": 7588,
  "\u2581adequate": 7589,
  "vest": 7590,
  "\u2581Number": 7591,
  "\u2581s\u0103rut": 7592,
  "\u2581Gabriel": 7593,
  "\u2581r\u0103m\u00e2": 7594,
  "\u2581sons": 7595,
  "\u258161": 7596,
  "\u2581fant": 7597,
  "\u2581Mat": 7598,
  "\u2581Imagin": 7599,
  "\u2581employees": 7600,
  "gust": 7601,
  "\u2581coordination": 7602,
  "\u2581female": 7603,
  "\u2581Liz": 7604,
  "\u0219e": 7605,
  "tale": 7606,
  "\u2581Centre": 7607,
  "\u2581reservation": 7608,
  "\u2581Banca": 7609,
  "\u2581knowing": 7610,
  "SP": 7611,
  "\u258158": 7612,
  "\u2581salt": 7613,
  "\u2581antren": 7614,
  "\u2581weak": 7615,
  "\u2581termenul": 7616,
  "\u2581(19": 7617,
  "\u2581Carter": 7618,
  "\u2581deschis\u0103": 7619,
  "\u2581moon": 7620,
  "vit": 7621,
  "\u2581Dra": 7622,
  "\u2581heads": 7623,
  "ean": 7624,
  "\u2581Window": 7625,
  "\u2581Dup": 7626,
  "\u2581bugetul": 7627,
  "\u2581threat": 7628,
  "\u2581adesea": 7629,
  "\u2581ar\u0103\u0163i": 7630,
  "\u2581chemical": 7631,
  "\u2581cream": 7632,
  "\u2581detail": 7633,
  "\u2581corner": 7634,
  "\u2581numesc": 7635,
  "tiu": 7636,
  "\u2581Berlin": 7637,
  "\u2581accommodation": 7638,
  "cept": 7639,
  "\u2581male": 7640,
  "\u2581guns": 7641,
  "\u2581h\u00e2rtie": 7642,
  "border": 7643,
  "n\u021b\u0103": 7644,
  "\u2581Morgan": 7645,
  "\u2581corresponding": 7646,
  "\u2581vizita": 7647,
  "\u2581taxe": 7648,
  "omer": 7649,
  "\u2581lini\u015fte": 7650,
  "\u2581cities": 7651,
  "oneze": 7652,
  "\u0103ia": 7653,
  "mic": 7654,
  "\u2581interview": 7655,
  "-4": 7656,
  "liza": 7657,
  "\u2581liceu": 7658,
  "\u2581starts": 7659,
  "\u2581letters": 7660,
  "\u2581shift": 7661,
  "\u2581concentration": 7662,
  "\u00ae": 7663,
  "\u2581plante": 7664,
  "\u2581consum": 7665,
  "\u2581impune": 7666,
  "\u2581utilizat\u0103": 7667,
  "var": 7668,
  "agon": 7669,
  "\u2581pantaloni": 7670,
  "\u2581load": 7671,
  "\u2581Market": 7672,
  "\u2581monster": 7673,
  "\u2581bleeding": 7674,
  "\u2581primar": 7675,
  "\u2581Pri": 7676,
  "\u2581conducted": 7677,
  "\u2581guvern": 7678,
  "\u2581interven": 7679,
  "\u2581notified": 7680,
  "Fi": 7681,
  "94": 7682,
  "\u258192": 7683,
  "\u2581lucrezi": 7684,
  "mont": 7685,
  "\u2581\u00eenghe": 7686,
  "\u258162": 7687,
  "fund": 7688,
  "\u2581semi": 7689,
  "\u2581square": 7690,
  "\u2581warning": 7691,
  "\u2581facts": 7692,
  "\u2581Hang": 7693,
  "\u2581declaration": 7694,
  "\u2581strict": 7695,
  "\u2581VII": 7696,
  "leg": 7697,
  "\u2581Work": 7698,
  "ANT": 7699,
  "\u2581apropiere": 7700,
  "\u2581u\u015f\u0103": 7701,
  "\u2581dirty": 7702,
  "eri": 7703,
  "\u2581shooting": 7704,
  "\u2581timpului": 7705,
  "\u2581conclusion": 7706,
  "Ex": 7707,
  "uzi": 7708,
  "\u2581networks": 7709,
  "\u2581propunere": 7710,
  "\u2581Forget": 7711,
  "\u2581pariu": 7712,
  "MET": 7713,
  "\u2581satelit": 7714,
  "\u2581strada": 7715,
  "\u2581eviden": 7716,
  "dat": 7717,
  "\u2581Pres": 7718,
  "och": 7719,
  "\u2581Spi": 7720,
  "atori": 7721,
  "\u2581metode": 7722,
  "\u2581m\u00e2ini": 7723,
  "\u2581recognize": 7724,
  "isa": 7725,
  "\u2581mono": 7726,
  "\u2581Case": 7727,
  "\u2581Taylor": 7728,
  "\u2581condi\u021bia": 7729,
  "\u25811990": 7730,
  "\u2581http": 7731,
  "\u2581referitor": 7732,
  "\u2581gunoi": 7733,
  "\u2581feti\u0163": 7734,
  "\u2581vede\u0163i": 7735,
  "\u2581onto": 7736,
  "\u2581riscului": 7737,
  "\u2581shower": 7738,
  "\u2581ri": 7739,
  "\u2581fundamentale": 7740,
  "\u2581integrated": 7741,
  "\u2581Moreover": 7742,
  "\u2581dura": 7743,
  "\u2581Hor": 7744,
  "\u2581pahar": 7745,
  "post": 7746,
  "\u2581carefully": 7747,
  "\u2581Destul": 7748,
  "\u2581desert": 7749,
  "\u2581stil": 7750,
  "ape": 7751,
  "\u2581DNA": 7752,
  "\u2581businesses": 7753,
  "\u2581Scoate": 7754,
  "\u2581clic": 7755,
  "\u2581usual": 7756,
  "\u2581tr\u0103it": 7757,
  "\u2581exceed": 7758,
  "\u2581Charles": 7759,
  "\u2581filmul": 7760,
  "\u2581ought": 7761,
  "\u2581suffer": 7762,
  "\u2581electric\u0103": 7763,
  "\u2581advance": 7764,
  "\u2581Dick": 7765,
  "DA": 7766,
  "\u2581Word": 7767,
  "\u2581grupului": 7768,
  "\u2581golf": 7769,
  "/1": 7770,
  "\u2581British": 7771,
  "\u2581frecvent": 7772,
  "omo": 7773,
  "\u2581Research": 7774,
  "\u2581urban": 7775,
  "\u2581\u00eemb": 7776,
  "\u2581comfortable": 7777,
  "\u2581hook": 7778,
  "odat\u0103": 7779,
  "stat": 7780,
  "\u2581redus": 7781,
  "78": 7782,
  "tory": 7783,
  "\u2581arunc": 7784,
  "\u2581Sk": 7785,
  "\u2581Abia": 7786,
  "\u2581Policy": 7787,
  "\u2581\u00eentuneric": 7788,
  "RI": 7789,
  "This": 7790,
  "\u2581Brown": 7791,
  "\u2581insulin\u0103": 7792,
  "\u2581powder": 7793,
  "\u2581multor": 7794,
  "\u2581partener": 7795,
  "\u2581aplice": 7796,
  "\u258195": 7797,
  "\u2581r\u0103s": 7798,
  "\u2581Edward": 7799,
  "65": 7800,
  "\u2581Pun": 7801,
  "fon": 7802,
  "\u2581Rich": 7803,
  "\u2581reveni": 7804,
  "\u2581adjustment": 7805,
  "\u2581soldat": 7806,
  "\u2581conformity": 7807,
  "\u2581roll": 7808,
  "\u2581mi\u015fca": 7809,
  "inta": 7810,
  "\u2581Pol": 7811,
  "\u2581lucrul": 7812,
  "\u2581miros": 7813,
  "hn": 7814,
  "inei": 7815,
  "\u2581Card": 7816,
  "\u2581Were": 7817,
  "\u2581speech": 7818,
  "\u2581Anne": 7819,
  "\u2581print": 7820,
  "\u2581\u00eentrebi": 7821,
  "PT": 7822,
  "\u2581Sta\u0163i": 7823,
  "\u2581afirmat": 7824,
  "gt": 7825,
  "\u2581accepta": 7826,
  "\u2581drawn": 7827,
  "\u2581Until": 7828,
  "\u2581integral": 7829,
  "\u2581categorii": 7830,
  "\u2581VIII": 7831,
  "\u2581dureri": 7832,
  "sha": 7833,
  "\u2581Odat\u0103": 7834,
  "\u2581EXP": 7835,
  "\u2581Jordan": 7836,
  "\u2581illegal": 7837,
  "\u2581dublu": 7838,
  "cro": 7839,
  "\u2581Micro": 7840,
  "\u2581Poland": 7841,
  "\u2581divi": 7842,
  "\u2581intri": 7843,
  "INE": 7844,
  "\u2581invite": 7845,
  "\u2581istoria": 7846,
  "\u2581V\u0103d": 7847,
  "prin": 7848,
  "\u2581monitorizarea": 7849,
  "ay": 7850,
  "\u2581supporting": 7851,
  "\u2581AL": 7852,
  "\u2581controls": 7853,
  "IG": 7854,
  "\u2581Faci": 7855,
  "zy": 7856,
  "\u2581surs\u0103": 7857,
  "\u2581oriunde": 7858,
  "\u2581pulled": 7859,
  "\u2581selling": 7860,
  "\u2581belong": 7861,
  "\u2581processes": 7862,
  "\u2581chain": 7863,
  "\u2581Jon": 7864,
  "\u2581Andrew": 7865,
  "ound": 7866,
  "\u2581requirement": 7867,
  "\u2581107": 7868,
  "\u2581l\u0103s\u0103m": 7869,
  "\u2581organization": 7870,
  "\u258188": 7871,
  "\u2581continuat": 7872,
  "\u2581valorilor": 7873,
  "9,": 7874,
  "\u2581utilizatorilor": 7875,
  "\u2581asisten": 7876,
  "\u2581c\u0103s\u0103tori": 7877,
  "\u2581route": 7878,
  "Ba": 7879,
  "\u2581zah\u0103r": 7880,
  "pu": 7881,
  "\u2581eficient\u0103": 7882,
  "\u2581forced": 7883,
  "\u2581football": 7884,
  "\u2581propuneri": 7885,
  "\u2581obiectivul": 7886,
  "\u2581posibil\u0103": 7887,
  "\u2581surprins": 7888,
  "\u2581scale": 7889,
  "\u2581dispe": 7890,
  "\u2581maritime": 7891,
  "59": 7892,
  "\u00c3": 7893,
  "\u2581accordingly": 7894,
  "\u2581vizeaz\u0103": 7895,
  "ula": 7896,
  "\u2581perspective": 7897,
  "\u2581shape": 7898,
  "\u2581(3),": 7899,
  "\u2581Pi": 7900,
  "\u2581aircraft": 7901,
  "\u2581mechanism": 7902,
  "\u2581recorded": 7903,
  "\u2581equipped": 7904,
  "\u2581Furthermore": 7905,
  "\u2581log": 7906,
  "\u2581uncle": 7907,
  "\u2581Carte": 7908,
  "\u2581sot": 7909,
  "fan": 7910,
  "\u2581eficiente": 7911,
  "\u2581features": 7912,
  "related": 7913,
  "\u2581imb": 7914,
  "\u25812015.": 7915,
  "\u2581acoperi": 7916,
  "\u2581apei": 7917,
  "\u2581rezultatul": 7918,
  "\u2581customer": 7919,
  "\u2581plimb": 7920,
  "\u2581ur\u0103sc": 7921,
  "\u2581vessel": 7922,
  "\u2581muzic\u0103": 7923,
  "8,": 7924,
  "\u2581pierderea": 7925,
  "jan": 7926,
  "\u2581Kid": 7927,
  "\u2581durat\u0103": 7928,
  "\u2581casei": 7929,
  "eala": 7930,
  "pon": 7931,
  "\u2581Sweet": 7932,
  "\u2581ear": 7933,
  "stru": 7934,
  "nul": 7935,
  "\u2581alineatel": 7936,
  "\u2581respectively": 7937,
  "\u2581enforcement": 7938,
  "\u2581nas": 7939,
  "\u021bele": 7940,
  "2011": 7941,
  "\u2581desire": 7942,
  "mpreuna": 7943,
  "\u2581pe\u015fte": 7944,
  "\u2581800": 7945,
  "ntul": 7946,
  "\u2581Grecia": 7947,
  "\u2581activit\u0103\u021bilor": 7948,
  "me\u015fte": 7949,
  "\u2581credem": 7950,
  "\u2581Locul": 7951,
  "nerv": 7952,
  "ates": 7953,
  "hand": 7954,
  "\u2581acordarea": 7955,
  "\u2581bill": 7956,
  "mel": 7957,
  "For": 7958,
  "\u2581confidence": 7959,
  "\u2581separat": 7960,
  "Oh": 7961,
  "\u2581fiscale": 7962,
  "\u2581arate": 7963,
  "\u2581mori": 7964,
  "\u2581Anul": 7965,
  "\u2581Democrat": 7966,
  "\u2581piciorul": 7967,
  "\u2581centrale": 7968,
  "\u2581barbat": 7969,
  "\"),": 7970,
  "92": 7971,
  "erii": 7972,
  "\u2581anuale": 7973,
  "\u2581definition": 7974,
  "robably": 7975,
  "\u2581Road": 7976,
  "ELE": 7977,
  "\u2581hainele": 7978,
  "\u2581Boo": 7979,
  "\u2581aprobat": 7980,
  "\u2581anex\u0103": 7981,
  "\u2581ace\u015ftia": 7982,
  "\u2581treac\u0103": 7983,
  "\u2581walked": 7984,
  "\u2581EX": 7985,
  "\u2581legii": 7986,
  "\u2581solicitat": 7987,
  "\u2581\u00eent\u00e2rziat": 7988,
  "~": 7989,
  "\u2581imagini": 7990,
  "\u2581mize": 7991,
  "\u2581delay": 7992,
  "\u2581linked": 7993,
  "\u2581ras": 7994,
  "\u2581roof": 7995,
  "\u2581injec": 7996,
  "\u2581modificat\u0103": 7997,
  "\").": 7998,
  "\u2581recognition": 7999,
  "ability": 8000,
  "500": 8001,
  "\u015fa": 8002,
  "\u2581trading": 8003,
  "\u2581gene": 8004,
  "\u2581IP": 8005,
  "\u258164": 8006,
  "\u2581Police": 8007,
  "\u2581soft": 8008,
  "\u2581helps": 8009,
  "\u2581modificarea": 8010,
  "\u2581\u00centoarce": 8011,
  "nel": 8012,
  "ries": 8013,
  "\u2581organizat": 8014,
  "\u2581principal\u0103": 8015,
  "\u2581transparent": 8016,
  "\u2581religious": 8017,
  "\u2581experts": 8018,
  "\u2581Congr": 8019,
  "\u2581Servicii": 8020,
  "\u2581principiile": 8021,
  "chis": 8022,
  "\u2581farm": 8023,
  "\u2581trials": 8024,
  "\u25811992": 8025,
  "\u2581costuri": 8026,
  "4%": 8027,
  "\u2581Best": 8028,
  "TH": 8029,
  "\u2581Budapest": 8030,
  "\u2581REGULATION": 8031,
  "\u2581Unless": 8032,
  "\u2581Reac": 8033,
  "\u2581conversa": 8034,
  "\u2581vial": 8035,
  "\u2581scurt\u0103": 8036,
  "\u2581existen": 8037,
  "SI": 8038,
  "\u2581comunitate": 8039,
  "\u2581standarde": 8040,
  "\u2581brand": 8041,
  "ni\u0219te": 8042,
  "qu": 8043,
  "rgent": 8044,
  "\u2581\u00eemprumut": 8045,
  "-10": 8046,
  "uke": 8047,
  "\u258167": 8048,
  "meri": 8049,
  "\u2581Marie": 8050,
  "\u2581intereseaz\u0103": 8051,
  "\u2581Absolute": 8052,
  "\u2581Beth": 8053,
  "\u2581Ban": 8054,
  "\u2581elaborarea": 8055,
  "\u2581AM": 8056,
  "\u2581Slovenia": 8057,
  "1)": 8058,
  "\u2581Baby": 8059,
  "\u2581juridic\u0103": 8060,
  "\u2581Jer": 8061,
  "\u2581scap": 8062,
  "\u2581applying": 8063,
  "\u2581asociat": 8064,
  "\u2581\u00eendoi": 8065,
  "\u2581Asculta": 8066,
  "\u2581suffering": 8067,
  "cuza": 8068,
  "\u2581capabil": 8069,
  "\u2581collect": 8070,
  "\u2581r\u0103ni": 8071,
  "\u2581FI": 8072,
  "\u2581reasonable": 8073,
  "\u2581boli": 8074,
  "\u2581majore": 8075,
  "\u2581ONU": 8076,
  "\u2581interesul": 8077,
  "\u2581standardele": 8078,
  "\u2581aviz": 8079,
  "\u2581pray": 8080,
  "\u2581task": 8081,
  "\u2581murdered": 8082,
  "7,": 8083,
  "\u2581marine": 8084,
  "39": 8085,
  "iat": 8086,
  "\u2581\u0219ase": 8087,
  "\u2581violent": 8088,
  "\u2581consideration": 8089,
  "\u2581implicate": 8090,
  "\u2581COMISIA": 8091,
  "\u2581excellent": 8092,
  "\u2581trup": 8093,
  "\u2581programelor": 8094,
  "\u2581specific\u0103": 8095,
  "nger": 8096,
  "\u2581None": 8097,
  "\u2581discut\u0103": 8098,
  "\u258159": 8099,
  "indow": 8100,
  "\u2581informeaz\u0103": 8101,
  "ians": 8102,
  "\u2581loan": 8103,
  "\u2581plimbare": 8104,
  "\u25812015,": 8105,
  "MP": 8106,
  "\u2581absence": 8107,
  "\u2581tribunal": 8108,
  "\u2581England": 8109,
  "ove\u015fti": 8110,
  "\u2581pantofi": 8111,
  "\u2581procedurilor": 8112,
  "\u2581Trust": 8113,
  "\u2581lots": 8114,
  "\u2581rom\u00e2n": 8115,
  "\u2581gotten": 8116,
  "\u2581sim\u021bi": 8117,
  "Karen": 8118,
  "\u2581sodiu": 8119,
  "VE": 8120,
  "\u2581functioning": 8121,
  "\u2581instructions": 8122,
  "\u2581ur": 8123,
  "\u25815:": 8124,
  "\u2581tro": 8125,
  "\u2581pin": 8126,
  "renz": 8127,
  "\u2581participarea": 8128,
  "\u2581ecran": 8129,
  "bile": 8130,
  "\u2581p\u0103rul": 8131,
  "Ar": 8132,
  "\u2581pl\u00e2n": 8133,
  "34": 8134,
  "\u2581nav\u0103": 8135,
  "\u2581Water": 8136,
  "\u2581languages": 8137,
  "\u2581mental": 8138,
  "\u2581participa": 8139,
  "\u2581aplic\u0103rii": 8140,
  "\u2581consultation": 8141,
  "Te": 8142,
  "\u2581interesat": 8143,
  "\u2581pozitiv": 8144,
  "\u2581dealing": 8145,
  "\u2581register": 8146,
  "4.": 8147,
  "\u2581Brazil": 8148,
  "\u2581kingdom": 8149,
  "\u2581U\u015f": 8150,
  "\u2581properties": 8151,
  "\u2581\u00eempu": 8152,
  "OP": 8153,
  "\u2581minime": 8154,
  "\u2581prezint": 8155,
  "fic": 8156,
  "\u2581Children": 8157,
  "\u2581Hun": 8158,
  "\u2581renal\u0103": 8159,
  "\u2581ended": 8160,
  "\u2581opinia": 8161,
  "\u2581vie": 8162,
  "\u2581generally": 8163,
  "\u2581alcool": 8164,
  "\u2581stres": 8165,
  "some": 8166,
  "uga": 8167,
  "\u2581murdar": 8168,
  "\u2581vie\u0163i": 8169,
  "RA": 8170,
  "\u2581comfort": 8171,
  "\u2581odd": 8172,
  "osul": 8173,
  "\u2581textile": 8174,
  "\u2581cast": 8175,
  "\u2581plasma": 8176,
  "toarele": 8177,
  "\u2581garanta": 8178,
  "\u2581istorie": 8179,
  "\u2581loose": 8180,
  "\u2581iese": 8181,
  "100": 8182,
  "\u2581bilet": 8183,
  "\u2581consequences": 8184,
  "\u2581sprijini": 8185,
  "\u2581object": 8186,
  "nin": 8187,
  "\u2581stabil": 8188,
  "\u2581gang": 8189,
  "\u2581nic\u0103ieri": 8190,
  "\u2581mail": 8191,
  "\u2581faster": 8192,
  "\u2581riscurile": 8193,
  "oza": 8194,
  "\u015e": 8195,
  "\u2581perfect\u0103": 8196,
  "scen": 8197,
  "\u2581Tip": 8198,
  "dri": 8199,
  "\u2581worship": 8200,
  "3%": 8201,
  "\u2581Problem": 8202,
  "96": 8203,
  "\u2581vamale": 8204,
  "\u2581sweat": 8205,
  "edin": 8206,
  "AS": 8207,
  "\u2581forth": 8208,
  "\u2581Web": 8209,
  "\u2581piept": 8210,
  "\u2581ridicul": 8211,
  "\u2581cro": 8212,
  "\u2581normal\u0103": 8213,
  "ansa": 8214,
  "\u2581Pra": 8215,
  "\u2581CN": 8216,
  "\u2581situations": 8217,
  "\u00f3": 8218,
  "\u2581sets": 8219,
  "To": 8220,
  "\u2581enumerate": 8221,
  "bert": 8222,
  "FA": 8223,
  "\u2581Sophi": 8224,
  "\u2581injury": 8225,
  "hin": 8226,
  "\u2581stability": 8227,
  "MI": 8228,
  "\u25812008.": 8229,
  "\u2581Serious": 8230,
  "\u2581es": 8231,
  "\u2581nota": 8232,
  "87": 8233,
  "\u2581Schengen": 8234,
  "\u2581petrec": 8235,
  "\u2581Jud": 8236,
  "tus": 8237,
  "\u2581noted": 8238,
  "iki": 8239,
  "phi": 8240,
  "ieri": 8241,
  "\u2581Previous": 8242,
  "\u2581A\u0219": 8243,
  "\u2581server": 8244,
  "\u2581gay": 8245,
  "\u2581Hristos": 8246,
  "\u2581leaflet": 8247,
  "ique": 8248,
  "\u2581selected": 8249,
  "\u2581applies": 8250,
  "\u2581dropped": 8251,
  "\u2581impactul": 8252,
  "\u2581CD": 8253,
  "\u2581presiune": 8254,
  "\u2581afl\u0103m": 8255,
  "\u2581cuno\u015ftin\u0163\u0103": 8256,
  "elicit\u0103ri": 8257,
  "\u2581unit\u0103": 8258,
  "\u2581elections": 8259,
  "\u2581\u00eencheie": 8260,
  "rov": 8261,
  "\u2581ghost": 8262,
  "\u2581\u0219tie": 8263,
  "\u2581\u015eti": 8264,
  "cot": 8265,
  "\u2581acuzat": 8266,
  "\u2581cla": 8267,
  "FF": 8268,
  "\u2581acoperire": 8269,
  "\u2581filled": 8270,
  "\u25811998": 8271,
  "\u2581cump\u0103ra": 8272,
  "\u2581documentele": 8273,
  "gged": 8274,
  "\u2581eliminarea": 8275,
  "\u2581chema": 8276,
  "\u2581planuri": 8277,
  "\u2581datoria": 8278,
  "illy": 8279,
  "\u2581atrage": 8280,
  "\u2581\u00een\u021beles": 8281,
  "\u2581Laur": 8282,
  "\u2581percentage": 8283,
  "\u2581Harris": 8284,
  "57": 8285,
  "\u2581Yet": 8286,
  "\u2581viol": 8287,
  "\u2581joy": 8288,
  "\u2581t\u0103iat": 8289,
  "\u2581reguli": 8290,
  "93": 8291,
  "spi": 8292,
  "\u2581Ast\u0103zi": 8293,
  "\u2581Wednesday": 8294,
  "\u2581bath": 8295,
  "\u2581Transport": 8296,
  "\u2581believes": 8297,
  "ama": 8298,
  "\u2581Legea": 8299,
  "\u2581\u00eenv\u0103\u0163a": 8300,
  "stro": 8301,
  "\u2581Dori": 8302,
  "\u2581mis": 8303,
  "\u2581considerat\u0103": 8304,
  "\u2581guidelines": 8305,
  "\u2581c\u0103rui": 8306,
  "rio": 8307,
  "\u2581Bay": 8308,
  "\u2581dovedi": 8309,
  "\u2581Cast": 8310,
  "\u2581psiho": 8311,
  "\u2581lied": 8312,
  "\u2581\u021bara": 8313,
  "\u2581Trage": 8314,
  "\u2581fizic\u0103": 8315,
  "\u2581beauty": 8316,
  "\u2581examination": 8317,
  "\u2581contained": 8318,
  "\u2581pension": 8319,
  "\u2581afecta": 8320,
  "\u2581realized": 8321,
  "\u2581urme": 8322,
  "\u2581Doug": 8323,
  "\u2581ve\u015fti": 8324,
  "\u2581str\u0103zi": 8325,
  "67": 8326,
  "\u015ftri": 8327,
  "\u2581\u00eencerc\u0103": 8328,
  "\u2581traditional": 8329,
  "\u2581respond": 8330,
  "\u2581mica": 8331,
  "Ca": 8332,
  "\u2581Eric": 8333,
  "\u2581guest": 8334,
  "\u2581companiei": 8335,
  "\u2581estimated": 8336,
  "room": 8337,
  "fli": 8338,
  "ame": 8339,
  "\u2581municipality": 8340,
  "\u2581Sistemul": 8341,
  "\u2581frecven": 8342,
  "\u2581juc\u0103tori": 8343,
  "\u2581ascult": 8344,
  "light": 8345,
  "\u2581differences": 8346,
  "\u2581measured": 8347,
  "\u2581Victoria": 8348,
  "\u2581consistent": 8349,
  "\u2581Bell": 8350,
  "\u2581considera": 8351,
  "\u2581creier": 8352,
  "\u2581Company": 8353,
  "\u2581depozit": 8354,
  "\u2581initiatives": 8355,
  "bos": 8356,
  "\u2581buildings": 8357,
  "\u2581becoming": 8358,
  "\u2581final\u0103": 8359,
  "AP": 8360,
  "\u2581pre\u021bul": 8361,
  "\u2581unitate": 8362,
  "\u2581generation": 8363,
  "un\u0103": 8364,
  "\u2581Brother": 8365,
  "\u2581verific": 8366,
  "\u2581PENTRU": 8367,
  "just": 8368,
  "\u2581\u00eencoace": 8369,
  "\u2581stabileasc\u0103": 8370,
  "\u2581vas": 8371,
  "\u2581mana": 8372,
  "\u2581petrecerea": 8373,
  "\u2581represent": 8374,
  "\u2581lipsit": 8375,
  "CAS": 8376,
  "\u2581jocurile": 8377,
  "\u2581propus": 8378,
  "\u0441": 8379,
  "nosti": 8380,
  "\u2581balls": 8381,
  "isse": 8382,
  "\u2581Dia": 8383,
  "\u2581Char": 8384,
  "\u2581Leg": 8385,
  "\u2581inclus": 8386,
  "\u2581sinuci": 8387,
  "\u2581regim": 8388,
  "\u2581cererii": 8389,
  "\u2581Monday": 8390,
  "\u2581apele": 8391,
  "\u2581nation": 8392,
  "\u0103turi": 8393,
  "\u2581thoughts": 8394,
  "\u2581tour": 8395,
  "\u2581Tor": 8396,
  "\u2581min\u0163i": 8397,
  "\u2581sending": 8398,
  "iene": 8399,
  "72": 8400,
  "\u2581Consider": 8401,
  "\u2581negativ": 8402,
  "uit": 8403,
  "comp": 8404,
  "Me": 8405,
  "\u2581Mexico": 8406,
  "\u2581metoda": 8407,
  "\u2581Texas": 8408,
  "\u2581sc\u0103pa": 8409,
  "\u2581Dumnezeul": 8410,
  "rice": 8411,
  "\u2581SI": 8412,
  "tiva": 8413,
  "nii": 8414,
  "\u2581G\u0103s": 8415,
  "\u2581cousin": 8416,
  "\u2581adults": 8417,
  "\u2581ships": 8418,
  "\u2581mountain": 8419,
  "\u2581suddenly": 8420,
  "cuv\u00e2nt": 8421,
  "\u2581Always": 8422,
  "\u2581arrested": 8423,
  "\u2581anumit\u0103": 8424,
  "\u2581v\u00e2ndut": 8425,
  "\u2581eligible": 8426,
  "\u2581papers": 8427,
  "\u258163": 8428,
  "chen": 8429,
  "RON": 8430,
  "TER": 8431,
  "\u2581calendar": 8432,
  "\u2581Aten": 8433,
  "\u2581mandat": 8434,
  "\u2581inamic": 8435,
  "&": 8436,
  "nui": 8437,
  "\u2581\u021b\u0103rilor": 8438,
  "\u2581Ready": 8439,
  "\u2581changing": 8440,
  "\u2581lovi": 8441,
  "\u2581scopuri": 8442,
  "\u2581intim": 8443,
  "\u2581senza": 8444,
  "\u2581defend": 8445,
  "\u2581explicat": 8446,
  "\u2581furnizeaz\u0103": 8447,
  "Ne": 8448,
  "\u00e4": 8449,
  "LA": 8450,
  "\u2581turning": 8451,
  "\u2581Mine": 8452,
  "\u2581produc\u0103tori": 8453,
  "\u2581declared": 8454,
  "\u2581title": 8455,
  "\u2581Chesti": 8456,
  "\u2581c\u00e2nt": 8457,
  "\u2581UK": 8458,
  "\u2581existe": 8459,
  "\u2581plac\u0103": 8460,
  "\u2581ratio": 8461,
  "\u2581Bosnia": 8462,
  "\u2581discutat": 8463,
  "}": 8464,
  "\u2581transparency": 8465,
  "IR": 8466,
  "\u2581c\u0103r\u0163i": 8467,
  "\u2581Program": 8468,
  "42": 8469,
  "\u2581simptome": 8470,
  "bro": 8471,
  "\u2581theory": 8472,
  "\u2581Echipa": 8473,
  "\u2581frig": 8474,
  "\u2581raportat": 8475,
  "\u2581viu": 8476,
  "\u2581snow": 8477,
  "\u2581Cut": 8478,
  "\u2581scape": 8479,
  "kes": 8480,
  "\u2581served": 8481,
  "\u0103tori": 8482,
  "\u2581programele": 8483,
  "\u2581legisla\u021biei": 8484,
  "\u2581Aaron": 8485,
  "\u2581arunca": 8486,
  "\u2581operate": 8487,
  "\u2581perete": 8488,
  "\u2581knife": 8489,
  "\u2581Commissioner": 8490,
  "\u2581nim\u0103nui": 8491,
  "\u258107": 8492,
  "\u2581sediul": 8493,
  "\u2581comportament": 8494,
  "\u2581teeth": 8495,
  "\u2581aerian": 8496,
  "\u2581holy": 8497,
  "\u2581generate": 8498,
  "\u2581Repe": 8499,
  "\u2581burden": 8500,
  "\u2581iube\u015fti": 8501,
  "\u2581stakeholders": 8502,
  "\u2581noticed": 8503,
  "\u2581tar": 8504,
  "2014": 8505,
  "atorul": 8506,
  "\u2581iube\u015fte": 8507,
  "\u2581AT": 8508,
  "4)": 8509,
  "\u2581Easy": 8510,
  "\u2581currency": 8511,
  "\u2581inteligent": 8512,
  "\u2581slab": 8513,
  "That": 8514,
  "anti": 8515,
  "\u2581scar\u0103": 8516,
  "\u2581num\u0103rului": 8517,
  "\u2581blo": 8518,
  "\u2581mainly": 8519,
  "\u2581proprietate": 8520,
  "\u2581vehicul": 8521,
  "por": 8522,
  "\u2581ratat": 8523,
  "\u2581modalitate": 8524,
  "\u2581p\u0103dure": 8525,
  "\u2581Vincent": 8526,
  "\u2581Centrul": 8527,
  "fr": 8528,
  "\u2581mid": 8529,
  "ima": 8530,
  "\u2581prim": 8531,
  "\u2581Sin": 8532,
  "\u258174": 8533,
  "\u2581creating": 8534,
  "\u2581significantly": 8535,
  "\u2581lup": 8536,
  "stia": 8537,
  "\u2581Doamn": 8538,
  "\u258114,": 8539,
  "\u2581Must": 8540,
  "\u2581Rod": 8541,
  "74": 8542,
  "\u2581Except": 8543,
  "\u2581Cro": 8544,
  "\u2581dispozi\u021bie": 8545,
  "\u2581Commander": 8546,
  "\u2581schemes": 8547,
  "\u2581tone": 8548,
  "sil": 8549,
  "\u2581efectul": 8550,
  "sub": 8551,
  "\u2581Sc": 8552,
  "\u2581aplicat": 8553,
  "\u2581bird": 8554,
  "\u2581mesajul": 8555,
  "\u2581lase": 8556,
  "\u2581tr": 8557,
  "\u2581locui": 8558,
  "\u2581ru\u015fine": 8559,
  "\u2581votes": 8560,
  "\u2581\u00cencepe": 8561,
  "\u2581Il": 8562,
  "Vorbesc": 8563,
  "\u2581identificare": 8564,
  "\u2581lansat": 8565,
  "\u2581superi": 8566,
  "\u2581obtain": 8567,
  "\u2581forest": 8568,
  "\u2581prostii": 8569,
  "\u2581semne": 8570,
  "\u2581crying": 8571,
  "56": 8572,
  "\u25811234/2007": 8573,
  "\u2581oral\u0103": 8574,
  "\u2581Jess": 8575,
  "\u2581bright": 8576,
  "\u2581deficit": 8577,
  "\u2581Qua": 8578,
  "\u00c2": 8579,
  "\u2581Fiindc\u0103": 8580,
  "\u258166": 8581,
  "\u2581\u00eent\u00e2lnesc": 8582,
  "\u2581animalele": 8583,
  "\u2581formal": 8584,
  "\u2581suitable": 8585,
  "\u2581HAVE": 8586,
  "\u2581participate": 8587,
  "\u2581adecvat\u0103": 8588,
  "\u2581entitled": 8589,
  "\u2581improving": 8590,
  "\u2581shares": 8591,
  "\u2581dumping": 8592,
  "\u2581Personal": 8593,
  "\u2581grounds": 8594,
  "\u2581televizor": 8595,
  "Se": 8596,
  "long": 8597,
  "\u2581ascultat": 8598,
  "rare": 8599,
  "ta\u015f": 8600,
  "54": 8601,
  "\u2581Inspector": 8602,
  "\u2581(0)": 8603,
  "peri": 8604,
  "\u2581armele": 8605,
  "\u2581Gir": 8606,
  "\u2581Charlotte": 8607,
  "\u2581NOT": 8608,
  "\u2581association": 8609,
  "\u2581vitez\u0103": 8610,
  "\u2581folose\u015fte": 8611,
  "\u2581ro\u015f": 8612,
  "\u2581plenty": 8613,
  "\u2581hip": 8614,
  "\u2581Ioan": 8615,
  "\u2581Adria": 8616,
  "\u258125%": 8617,
  "\u2581combined": 8618,
  "66": 8619,
  "\u2581Rege": 8620,
  "\u2581interac": 8621,
  "ergic": 8622,
  "wful": 8623,
  "\u2581implica": 8624,
  "jur": 8625,
  "rock": 8626,
  "\u2581Head": 8627,
  "geri": 8628,
  "\u2581membrilor": 8629,
  "\u2581Prince": 8630,
  "\u2581colec": 8631,
  ".1": 8632,
  "\u2581Beck": 8633,
  "\u2581identity": 8634,
  "fully": 8635,
  "\u2581crucial": 8636,
  "\u2581culori": 8637,
  "\u2581dispozitiv": 8638,
  "2013": 8639,
  "ign": 8640,
  "\u2581apartamentul": 8641,
  "stal": 8642,
  "\u0103tur\u0103": 8643,
  "\u258130%": 8644,
  "\u25812-": 8645,
  "\u2581component": 8646,
  "\u2581instance": 8647,
  "\u2581stricat": 8648,
  "\u2581mijloace": 8649,
  "\u2581sarcina": 8650,
  "\u2581p\u0103r\u021bilor": 8651,
  "\u258182": 8652,
  "\u2581dore\u015fti": 8653,
  "\u2581Croatia": 8654,
  "\u2581atacat": 8655,
  "\u2581Codul": 8656,
  "\u2581sectorului": 8657,
  "CT": 8658,
  "\u2581finger": 8659,
  "\u2581fondurilor": 8660,
  "\u2581chair": 8661,
  "\u2581principiul": 8662,
  "\u2581bedroom": 8663,
  "\u2581fake": 8664,
  "\u2581limit\u0103": 8665,
  "\u2581targets": 8666,
  "sp": 8667,
  "\u2581europeni": 8668,
  "\u2581exterior": 8669,
  "\u2581oare": 8670,
  "uci": 8671,
  "\u2581Rela": 8672,
  "\u2581min\u0163it": 8673,
  "{": 8674,
  "bun": 8675,
  "\u2581pl\u0103tesc": 8676,
  "\u2581session": 8677,
  "\u2581Lucruri": 8678,
  "\u2581soldiers": 8679,
  "\u2581ends": 8680,
  "\u2581needle": 8681,
  "\u2581angaja": 8682,
  "\u2581Officer": 8683,
  "\u2581split": 8684,
  "\u2581femeilor": 8685,
  "\u2581CU": 8686,
  "ntoarce": 8687,
  "\u2581belongs": 8688,
  "\u00a3": 8689,
  "\u2581fapte": 8690,
  "\u2581pierzi": 8691,
  "\u2581strengthen": 8692,
  "\u2581instruc": 8693,
  "\u2581industriale": 8694,
  "\u2581Sec": 8695,
  "\u2581UI": 8696,
  "\u2581semnificativ\u0103": 8697,
  "\u2581Azi": 8698,
  "\u2581background": 8699,
  "\u2581vizual": 8700,
  "nom": 8701,
  "\u2581Center": 8702,
  "nder": 8703,
  "\u2581extended": 8704,
  "\u2581asleep": 8705,
  "\u2581fotografie": 8706,
  "\u2581buzunar": 8707,
  "\u2581Professor": 8708,
  "\u2581judecat\u0103": 8709,
  "\u2581Fie": 8710,
  "\u2581committee": 8711,
  "\u2581afford": 8712,
  "ulbur\u0103ri": 8713,
  "\u2581obiect": 8714,
  "PL": 8715,
  "\u2581Rad": 8716,
  "iest": 8717,
  "\u2581Crist": 8718,
  "\u2581Royal": 8719,
  "\u2581politicilor": 8720,
  "\u2581soare": 8721,
  "\u2581insist": 8722,
  "\u2581candidate": 8723,
  "av": 8724,
  "anse": 8725,
  "\u2581appointment": 8726,
  "\u2581simpl\u0103": 8727,
  "\u2581Photo": 8728,
  "\u2581\u00eendeplinirea": 8729,
  "\u2581infusion": 8730,
  "\u2581Prim": 8731,
  "eva": 8732,
  "\u2581journey": 8733,
  "cii": 8734,
  "\u2581clo": 8735,
  "\u2581ulei": 8736,
  "\u25812006,": 8737,
  "\u2581aplicate": 8738,
  "\u2581bazate": 8739,
  "\u2581puternice": 8740,
  "clan": 8741,
  "\u2581lupte": 8742,
  "\u2581causes": 8743,
  "\u2581coleg": 8744,
  "\u2581co\u015f": 8745,
  "pol": 8746,
  "\u2581Andr": 8747,
  "\u2581rural": 8748,
  "\u2581factori": 8749,
  "\u2581grown": 8750,
  "\u2581circula": 8751,
  "\u2581embarrass": 8752,
  "zol": 8753,
  "\u2581Del": 8754,
  "\u2581toward": 8755,
  "\u2581ducem": 8756,
  "\u2581durabil\u0103": 8757,
  "\u2581discussed": 8758,
  "ppy": 8759,
  "\u2581syringe": 8760,
  "76": 8761,
  "\u2581launch": 8762,
  "\u2581loans": 8763,
  "poli": 8764,
  "\u2581pachet": 8765,
  "\u2581macar": 8766,
  "\u2581personalului": 8767,
  "\u2581autorizat": 8768,
  "\u2581assume": 8769,
  "elly": 8770,
  "ente": 8771,
  "\u2581Bull": 8772,
  "wo": 8773,
  "61": 8774,
  "\u2581universal": 8775,
  "69": 8776,
  "\u2581detaliate": 8777,
  "\u2581Shall": 8778,
  "ear": 8779,
  "\u2581Fum": 8780,
  "\u2581oferta": 8781,
  "\u2581furt": 8782,
  "PR": 8783,
  "GA": 8784,
  "\u2581suficiente": 8785,
  "\u2581comand\u0103": 8786,
  "\u2581vecin\u0103tate": 8787,
  "ncepe": 8788,
  "\u258191": 8789,
  "lop": 8790,
  "\u2581alegerea": 8791,
  "\u2581eggs": 8792,
  "\u258168": 8793,
  "\u2581closely": 8794,
  "van": 8795,
  ".12.": 8796,
  "ser\u0103": 8797,
  "\u2581prize": 8798,
  "=\"": 8799,
  "\u2581comercial": 8800,
  "\u2581protocol": 8801,
  "cream": 8802,
  "\u2581quantity": 8803,
  "its": 8804,
  "\u2581oficiale": 8805,
  "EI": 8806,
  "\u2581r\u0103spunsuri": 8807,
  "\u2581prioritate": 8808,
  "\u2581dore\u015ft": 8809,
  "\u2581bridge": 8810,
  "n\u00e2nd": 8811,
  "\u2581entirety": 8812,
  "\u2581Sf\u00e2nt": 8813,
  "mite": 8814,
  "\u2581Ministry": 8815,
  "\u2581%": 8816,
  "\u258198": 8817,
  "\u2581height": 8818,
  "\u2581Search": 8819,
  "lucr": 8820,
  "\u2581locurile": 8821,
  "\u2581sports": 8822,
  "\u2581judec\u0103tor": 8823,
  "\u2581vegetables": 8824,
  "\u2581Down": 8825,
  "\u2581ias\u0103": 8826,
  "hl": 8827,
  "\u2581specii": 8828,
  ":00.": 8829,
  "zut": 8830,
  "\u2581Unu": 8831,
  "\u2581\u00eentreba": 8832,
  "\u2581silver": 8833,
  "\u2581School": 8834,
  "\u2581Send": 8835,
  "/10": 8836,
  "ory": 8837,
  "\u2581Tour": 8838,
  "\u2581Ros": 8839,
  "\u2581flag": 8840,
  "\u2581Cinci": 8841,
  "z\u00e2nd": 8842,
  "\u2581Pie": 8843,
  "\u2581preparation": 8844,
  "84": 8845,
  "yer": 8846,
  "\u2581bust": 8847,
  "\u2581efectiv": 8848,
  "\u2581ordered": 8849,
  "vil": 8850,
  "\u25816:": 8851,
  "\u2581fiec\u0103rei": 8852,
  "ones": 8853,
  "\u2581conforme": 8854,
  "\u2581afacerea": 8855,
  "\u2581award": 8856,
  "\u2581Peg": 8857,
  "\u2581legi": 8858,
  "\u0163el": 8859,
  "\u2581transformat": 8860,
  "\u2581Inc": 8861,
  "\u2581Grant": 8862,
  "\u2581Angele": 8863,
  "\u2581button": 8864,
  "\u2581buying": 8865,
  "\u2581profesional\u0103": 8866,
  "\u2581englez\u0103": 8867,
  "\u2581argint": 8868,
  "\u2581sil": 8869,
  "ofer": 8870,
  "\u2581spare": 8871,
  "\u2581evrei": 8872,
  "\u2581CRR": 8873,
  "\u2581achizi": 8874,
  "\u2581Bet": 8875,
  "\u2581meal": 8876,
  "nzi": 8877,
  "\u2581buc\u0103t\u0103rie": 8878,
  "\u2581lights": 8879,
  "\u2581lord": 8880,
  "anta": 8881,
  "\u2581Flo": 8882,
  "\u2581potrivit\u0103": 8883,
  "\u2581enterprises": 8884,
  "\u2581fericire": 8885,
  "-8": 8886,
  "ST": 8887,
  "\u2581costume": 8888,
  "\u2581tulbur\u0103ri": 8889,
  "\u2581stomach": 8890,
  "\u2581Erau": 8891,
  "\u2581stric": 8892,
  "\u2581fondurile": 8893,
  "\u2581textul": 8894,
  "stre": 8895,
  "\u2581mixed": 8896,
  "\u2581Americii": 8897,
  "\u2581boala": 8898,
  "\u2581DA": 8899,
  "\u2581sur": 8900,
  "\";": 8901,
  "\u2581fail": 8902,
  "\u2581Roy": 8903,
  "Sunt": 8904,
  "\u2581fourth": 8905,
  "\u2581curte": 8906,
  "\u2581Alt": 8907,
  "-2-": 8908,
  "\u2581mese": 8909,
  "\u2581chestiuni": 8910,
  "\u2581frumoas": 8911,
  "\u2581M\u0103surile": 8912,
  "\u2581luat\u0103": 8913,
  "\u2581pre\u021burile": 8914,
  "this": 8915,
  "\u2581encourage": 8916,
  "pra": 8917,
  "ction": 8918,
  "\u2581suplimentar": 8919,
  "\u2581spion": 8920,
  "3)": 8921,
  "\u2581lunii": 8922,
  "\u2581trees": 8923,
  "CA": 8924,
  "\u2581doors": 8925,
  "\u2581express": 8926,
  "\u2581interval": 8927,
  "\u2581Radio": 8928,
  "\u2581ISO": 8929,
  "\u2581cru": 8930,
  "\u2581Fata": 8931,
  "\u2581consumul": 8932,
  "\u2581Climate": 8933,
  "\u2581McG": 8934,
  "\u2581solda": 8935,
  "\u2581viteza": 8936,
  "\u2581chest": 8937,
  "lex": 8938,
  "ida": 8939,
  "\u2581chimice": 8940,
  "\u2581guests": 8941,
  "rziu": 8942,
  "\u2581fibre": 8943,
  "\u2581schedule": 8944,
  "\u2581\u00eenv\u0103\u0163": 8945,
  "\u2581functions": 8946,
  "\u2581Bio": 8947,
  "\u2581bucura": 8948,
  "\u2581recognised": 8949,
  "\u2581priorities": 8950,
  "\u2581assess": 8951,
  "\u2581familiar": 8952,
  "cadru": 8953,
  "\u258177": 8954,
[...]
